{
  "version": "1.0",
  "truncation": null,
  "padding": null,
  "added_tokens": [
    {
      "id": 0,
      "content": "[UNK]",
      "single_word": false,
      "lstrip": false,
      "rstrip": false,
      "normalized": false,
      "special": true
    },
    {
      "id": 1,
      "content": "[CLS]",
      "single_word": false,
      "lstrip": false,
      "rstrip": false,
      "normalized": false,
      "special": true
    },
    {
      "id": 2,
      "content": "[SEP]",
      "single_word": false,
      "lstrip": false,
      "rstrip": false,
      "normalized": false,
      "special": true
    },
    {
      "id": 3,
      "content": "[PAD]",
      "single_word": false,
      "lstrip": false,
      "rstrip": false,
      "normalized": false,
      "special": true
    },
    {
      "id": 4,
      "content": "[MASK]",
      "single_word": false,
      "lstrip": false,
      "rstrip": false,
      "normalized": false,
      "special": true
    }
  ],
  "normalizer": null,
  "pre_tokenizer": {
    "type": "Whitespace"
  },
  "post_processor": null,
  "decoder": null,
  "model": {
    "type": "BPE",
    "dropout": null,
    "unk_token": null,
    "continuing_subword_prefix": null,
    "end_of_word_suffix": null,
    "fuse_unk": false,
    "byte_fallback": false,
    "ignore_merges": false,
    "vocab": {
      "[UNK]": 0,
      "[CLS]": 1,
      "[SEP]": 2,
      "[PAD]": 3,
      "[MASK]": 4,
      "0": 5,
      "1": 6,
      "2": 7,
      "3": 8,
      "4": 9,
      "5": 10,
      "6": 11,
      "7": 12,
      "8": 13,
      "9": 14,
      "a": 15,
      "b": 16,
      "c": 17,
      "d": 18,
      "e": 19,
      "f": 20,
      "g": 21,
      "h": 22,
      "i": 23,
      "j": 24,
      "k": 25,
      "l": 26,
      "m": 27,
      "n": 28,
      "o": 29,
      "p": 30,
      "q": 31,
      "r": 32,
      "s": 33,
      "t": 34,
      "u": 35,
      "v": 36,
      "w": 37,
      "x": 38,
      "y": 39,
      "z": 40,
      "³": 41,
      "½": 42,
      "¾": 43,
      "ß": 44,
      "à": 45,
      "á": 46,
      "â": 47,
      "ã": 48,
      "ä": 49,
      "å": 50,
      "æ": 51,
      "ç": 52,
      "è": 53,
      "é": 54,
      "ê": 55,
      "ë": 56,
      "ì": 57,
      "í": 58,
      "î": 59,
      "ï": 60,
      "ð": 61,
      "ñ": 62,
      "ò": 63,
      "ó": 64,
      "ô": 65,
      "õ": 66,
      "ö": 67,
      "ø": 68,
      "ù": 69,
      "ú": 70,
      "û": 71,
      "ü": 72,
      "ý": 73,
      "þ": 74,
      "ō": 75,
      "in": 76,
      "er": 77,
      "en": 78,
      "es": 79,
      "on": 80,
      "ing": 81,
      "re": 82,
      "al": 83,
      "an": 84,
      "st": 85,
      "ar": 86,
      "ed": 87,
      "or": 88,
      "at": 89,
      "br": 90,
      "ou": 91,
      "ly": 92,
      "le": 93,
      "il": 94,
      "th": 95,
      "ch": 96,
      "ct": 97,
      "se": 98,
      "li": 99,
      "vi": 100,
      "it": 101,
      "mo": 102,
      "om": 103,
      "ic": 104,
      "ent": 105,
      "lo": 106,
      "de": 107,
      "ay": 108,
      "ion": 109,
      "el": 110,
      "ri": 111,
      "ev": 112,
      "gh": 113,
      "sh": 114,
      "ma": 115,
      "movi": 116,
      "ro": 117,
      "fil": 118,
      "act": 119,
      "un": 120,
      "film": 121,
      "ad": 122,
      "et": 123,
      "am": 124,
      "ke": 125,
      "one": 126,
      "di": 127,
      "ce": 128,
      "movie": 129,
      "im": 130,
      "go": 131,
      "ers": 132,
      "su": 133,
      "la": 134,
      "ld": 135,
      "ow": 136,
      "ve": 137,
      "pe": 138,
      "ra": 139,
      "com": 140,
      "ally": 141,
      "ul": 142,
      "sc": 143,
      "ck": 144,
      "od": 145,
      "est": 146,
      "ess": 147,
      "po": 148,
      "man": 149,
      "ex": 150,
      "ir": 151,
      "as": 152,
      "ter": 153,
      "ab": 154,
      "ever": 155,
      "ap": 156,
      "em": 157,
      "ol": 158,
      "be": 159,
      "ght": 160,
      "op": 161,
      "ur": 162,
      "us": 163,
      "end": 164,
      "fe": 165,
      "ut": 166,
      "con": 167,
      "ge": 168,
      "thing": 169,
      "ta": 170,
      "id": 171,
      "ould": 172,
      "art": 173,
      "wor": 174,
      "oun": 175,
      "ant": 176,
      "like": 177,
      "ell": 178,
      "is": 179,
      "pro": 180,
      "ne": 181,
      "and": 182,
      "ous": 183,
      "per": 184,
      "ok": 185,
      "for": 186,
      "tr": 187,
      "ot": 188,
      "qu": 189,
      "ca": 190,
      "char": 191,
      "ation": 192,
      "get": 193,
      "tim": 194,
      "ill": 195,
      "way": 196,
      "pl": 197,
      "ind": 198,
      "ment": 199,
      "atch": 200,
      "ate": 201,
      "ist": 202,
      "ory": 203,
      "so": 204,
      "ther": 205,
      "ig": 206,
      "ver": 207,
      "ful": 208,
      "good": 209,
      "ive": 210,
      "mu": 211,
      "ard": 212,
      "reat": 213,
      "watch": 214,
      "charact": 215,
      "bo": 216,
      "int": 217,
      "see": 218,
      "gu": 219,
      "thou": 220,
      "ff": 221,
      "der": 222,
      "te": 223,
      "ome": 224,
      "would": 225,
      "even": 226,
      "ong": 227,
      "jo": 228,
      "all": 229,
      "ci": 230,
      "tt": 231,
      "sp": 232,
      "wh": 233,
      "able": 234,
      "ound": 235,
      "pt": 236,
      "ear": 237,
      "fa": 238,
      "ine": 239,
      "ity": 240,
      "story": 241,
      "time": 242,
      "ite": 243,
      "um": 244,
      "wo": 245,
      "pre": 246,
      "lot": 247,
      "no": 248,
      "ath": 249,
      "really": 250,
      "ight": 251,
      "sa": 252,
      "show": 253,
      "scen": 254,
      "ble": 255,
      "red": 256,
      "ss": 257,
      "king": 258,
      "ple": 259,
      "me": 260,
      "ies": 261,
      "ba": 262,
      "co": 263,
      "play": 264,
      "pr": 265,
      "ep": 266,
      "well": 267,
      "wi": 268,
      "kn": 269,
      "great": 270,
      "some": 271,
      "ort": 272,
      "ast": 273,
      "look": 274,
      "thin": 275,
      "bad": 276,
      "he": 277,
      "ence": 278,
      "much": 279,
      "our": 280,
      "every": 281,
      "low": 282,
      "could": 283,
      "ure": 284,
      "fir": 285,
      "rect": 286,
      "peop": 287,
      "know": 288,
      "ph": 289,
      "people": 290,
      "also": 291,
      "real": 292,
      "ud": 293,
      "part": 294,
      "first": 295,
      "any": 296,
      "ber": 297,
      "ie": 298,
      "direct": 299,
      "ac": 300,
      "du": 301,
      "make": 302,
      "fun": 303,
      "ame": 304,
      "ves": 305,
      "gr": 306,
      "ew": 307,
      "kes": 308,
      "ser": 309,
      "ag": 310,
      "tra": 311,
      "str": 312,
      "ide": 313,
      "ick": 314,
      "made": 315,
      "mar": 316,
      "ors": 317,
      "inter": 318,
      "wr": 319,
      "think": 320,
      "say": 321,
      "ho": 322,
      "seem": 323,
      "movies": 324,
      "ces": 325,
      "character": 326,
      "app": 327,
      "gi": 328,
      "pa": 329,
      "characters": 330,
      "ice": 331,
      "des": 332,
      "fin": 333,
      "many": 334,
      "tain": 335,
      "min": 336,
      "view": 337,
      "ical": 338,
      "love": 339,
      "ans": 340,
      "to": 341,
      "ated": 342,
      "though": 343,
      "work": 344,
      "plot": 345,
      "less": 346,
      "films": 347,
      "au": 348,
      "never": 349,
      "ny": 350,
      "ry": 351,
      "back": 352,
      "seen": 353,
      "pect": 354,
      "want": 355,
      "ang": 356,
      "fect": 357,
      "acting": 358,
      "bet": 359,
      "ster": 360,
      "two": 361,
      "res": 362,
      "point": 363,
      "inc": 364,
      "ance": 365,
      "hor": 366,
      "mi": 367,
      "best": 368,
      "ty": 369,
      "pla": 370,
      "ious": 371,
      "ttle": 372,
      "tur": 373,
      "ef": 374,
      "ary": 375,
      "ru": 376,
      "year": 377,
      "little": 378,
      "we": 379,
      "life": 380,
      "ved": 381,
      "ough": 382,
      "may": 383,
      "other": 384,
      "ens": 385,
      "new": 386,
      "ins": 387,
      "age": 388,
      "ft": 389,
      "pri": 390,
      "ak": 391,
      "dis": 392,
      "do": 393,
      "att": 394,
      "iz": 395,
      "lu": 396,
      "kill": 397,
      "fi": 398,
      "ving": 399,
      "fri": 400,
      "better": 401,
      "still": 402,
      "ually": 403,
      "tru": 404,
      "car": 405,
      "fo": 406,
      "19": 407,
      "ning": 408,
      "ip": 409,
      "cent": 410,
      "find": 411,
      "ather": 412,
      "gra": 413,
      "scene": 414,
      "mon": 415,
      "ction": 416,
      "try": 417,
      "les": 418,
      "amer": 419,
      "sur": 420,
      "aw": 421,
      "perfor": 422,
      "fr": 423,
      "ts": 424,
      "read": 425,
      "gen": 426,
      "tal": 427,
      "peci": 428,
      "ily": 429,
      "up": 430,
      "come": 431,
      "son": 432,
      "scenes": 433,
      "day": 434,
      "feel": 435,
      "vers": 436,
      "sim": 437,
      "interest": 438,
      "something": 439,
      "cast": 440,
      "hi": 441,
      "ild": 442,
      "sing": 443,
      "ertain": 444,
      "par": 445,
      "ater": 446,
      "tri": 447,
      "over": 448,
      "her": 449,
      "cho": 450,
      "stand": 451,
      "beli": 452,
      "ree": 453,
      "old": 454,
      "sed": 455,
      "happ": 456,
      "friend": 457,
      "che": 458,
      "ven": 459,
      "cla": 460,
      "bu": 461,
      "how": 462,
      "ting": 463,
      "joy": 464,
      "fam": 465,
      "ob": 466,
      "ense": 467,
      "ian": 468,
      "war": 469,
      "irl": 470,
      "mus": 471,
      "ably": 472,
      "writ": 473,
      "wom": 474,
      "watching": 475,
      "sit": 476,
      "guy": 477,
      "cre": 478,
      "star": 479,
      "ating": 480,
      "turn": 481,
      "funny": 482,
      "ions": 483,
      "girl": 484,
      "performan": 485,
      "ason": 486,
      "actors": 487,
      "bit": 488,
      "ffer": 489,
      "scre": 490,
      "big": 491,
      "who": 492,
      "ste": 493,
      "under": 494,
      "believ": 495,
      "lack": 496,
      "mem": 497,
      "sy": 498,
      "actually": 499,
      "pi": 500,
      "another": 501,
      "makes": 502,
      "years": 503,
      "ish": 504,
      "pers": 505,
      "fact": 506,
      "lau": 507,
      "enjoy": 508,
      "ext": 509,
      "nothing": 510,
      "start": 511,
      "going": 512,
      "port": 513,
      "director": 514,
      "most": 515,
      "ways": 516,
      "oung": 517,
      "hu": 518,
      "comm": 519,
      "ror": 520,
      "comed": 521,
      "exc": 522,
      "young": 523,
      "right": 524,
      "long": 525,
      "mis": 526,
      "sure": 527,
      "je": 528,
      "cra": 529,
      "produ": 530,
      "illi": 531,
      "ments": 532,
      "dra": 533,
      "mag": 534,
      "row": 535,
      "cle": 536,
      "light": 537,
      "sin": 538,
      "orig": 539,
      "world": 540,
      "high": 541,
      "got": 542,
      "ute": 543,
      "ial": 544,
      "laugh": 545,
      "origin": 546,
      "ank": 547,
      "bor": 548,
      "bl": 549,
      "vel": 550,
      "sup": 551,
      "lea": 552,
      "ult": 553,
      "won": 554,
      "comes": 555,
      "far": 556,
      "ni": 557,
      "sub": 558,
      "ner": 559,
      "ach": 560,
      "comp": 561,
      "aut": 562,
      "hel": 563,
      "out": 564,
      "thought": 565,
      "comple": 566,
      "let": 567,
      "col": 568,
      "action": 569,
      "wood": 570,
      "tty": 571,
      "cont": 572,
      "my": 573,
      "ents": 574,
      "quite": 575,
      "pretty": 576,
      "things": 577,
      "main": 578,
      "ha": 579,
      "appe": 580,
      "hard": 581,
      "kid": 582,
      "ced": 583,
      "need": 584,
      "mer": 585,
      "ript": 586,
      "person": 587,
      "seems": 588,
      "cor": 589,
      "cu": 590,
      "effect": 591,
      "ire": 592,
      "put": 593,
      "vo": 594,
      "cept": 595,
      "around": 596,
      "use": 597,
      "wonder": 598,
      "take": 599,
      "give": 600,
      "however": 601,
      "kind": 602,
      "da": 603,
      "original": 604,
      "sex": 605,
      "screen": 606,
      "ings": 607,
      "bas": 608,
      "eng": 609,
      "wa": 610,
      "na": 611,
      "por": 612,
      "beg": 613,
      "enough": 614,
      "horror": 615,
      "led": 616,
      "ody": 617,
      "tell": 618,
      "script": 619,
      "ically": 620,
      "music": 621,
      "saw": 622,
      "interesting": 623,
      "gets": 624,
      "worth": 625,
      "mind": 626,
      "expect": 627,
      "bar": 628,
      "ately": 629,
      "run": 630,
      "thout": 631,
      "fort": 632,
      "without": 633,
      "lin": 634,
      "inv": 635,
      "ular": 636,
      "sol": 637,
      "beaut": 638,
      "last": 639,
      "must": 640,
      "fan": 641,
      "ations": 642,
      "used": 643,
      "press": 644,
      "lead": 645,
      "pres": 646,
      "boy": 647,
      "rel": 648,
      "reason": 649,
      "call": 650,
      "americ": 651,
      "always": 652,
      "class": 653,
      "ds": 654,
      "comedy": 655,
      "land": 656,
      "vious": 657,
      "hol": 658,
      "almost": 659,
      "ja": 660,
      "sound": 661,
      "val": 662,
      "ass": 663,
      "times": 664,
      "done": 665,
      "mot": 666,
      "ped": 667,
      "utes": 668,
      "series": 669,
      "gg": 670,
      "whole": 671,
      "child": 672,
      "mat": 673,
      "might": 674,
      "shot": 675,
      "own": 676,
      "role": 677,
      "line": 678,
      "sm": 679,
      "ending": 680,
      "least": 681,
      "graph": 682,
      "cc": 683,
      "prob": 684,
      "differ": 685,
      "med": 686,
      "complete": 687,
      "hand": 688,
      "ale": 689,
      "sequ": 690,
      "cri": 691,
      "alo": 692,
      "coun": 693,
      "cha": 694,
      "night": 695,
      "found": 696,
      "not": 697,
      "book": 698,
      "cap": 699,
      "ger": 700,
      "pie": 701,
      "als": 702,
      "anything": 703,
      "minutes": 704,
      "ks": 705,
      "ane": 706,
      "rible": 707,
      "head": 708,
      "set": 709,
      "probably": 710,
      "family": 711,
      "cour": 712,
      "away": 713,
      "hn": 714,
      "since": 715,
      "dr": 716,
      "ia": 717,
      "ore": 718,
      "10": 719,
      "woman": 720,
      "ten": 721,
      "tv": 722,
      "fol": 723,
      "thr": 724,
      "men": 725,
      "yet": 726,
      "clo": 727,
      "spo": 728,
      "lic": 729,
      "fully": 730,
      "performance": 731,
      "ness": 732,
      "played": 733,
      "ked": 734,
      "gue": 735,
      "peri": 736,
      "care": 737,
      "ible": 738,
      "poss": 739,
      "came": 740,
      "mean": 741,
      "audi": 742,
      "poor": 743,
      "wal": 744,
      "ling": 745,
      "yes": 746,
      "entertain": 747,
      "ship": 748,
      "anyone": 749,
      "speci": 750,
      "rest": 751,
      "john": 752,
      "rather": 753,
      "sho": 754,
      "making": 755,
      "ton": 756,
      "oth": 757,
      "stu": 758,
      "ange": 759,
      "worst": 760,
      "ual": 761,
      "cr": 762,
      "ouse": 763,
      "ying": 764,
      "its": 765,
      "sk": 766,
      "dar": 767,
      "keep": 768,
      "hal": 769,
      "hum": 770,
      "ms": 771,
      "cy": 772,
      "fli": 773,
      "tw": 774,
      "ga": 775,
      "sense": 776,
      "dialo": 777,
      "place": 778,
      "lar": 779,
      "den": 780,
      "beauti": 781,
      "cons": 782,
      "cou": 783,
      "oney": 784,
      "ps": 785,
      "although": 786,
      "poli": 787,
      "especi": 788,
      "ted": 789,
      "believe": 790,
      "especially": 791,
      "body": 792,
      "ju": 793,
      "mur": 794,
      "ative": 795,
      "epis": 796,
      "dv": 797,
      "off": 798,
      "trying": 799,
      "different": 800,
      "cli": 801,
      "happen": 802,
      "appear": 803,
      "everything": 804,
      "empt": 805,
      "ned": 806,
      "job": 807,
      "course": 808,
      "surpri": 809,
      "ond": 810,
      "rist": 811,
      "cut": 812,
      "bly": 813,
      "goes": 814,
      "commend": 815,
      "perfect": 816,
      "pict": 817,
      "maybe": 818,
      "house": 819,
      "ograph": 820,
      "cond": 821,
      "plays": 822,
      "ren": 823,
      "mor": 824,
      "creat": 825,
      "dvd": 826,
      "ject": 827,
      "vil": 828,
      "tit": 829,
      "har": 830,
      "shows": 831,
      "black": 832,
      "add": 833,
      "looking": 834,
      "someone": 835,
      "blo": 836,
      "os": 837,
      "the": 838,
      "proble": 839,
      "dec": 840,
      "are": 841,
      "member": 842,
      "fer": 843,
      "recommend": 844,
      "dan": 845,
      "human": 846,
      "ilar": 847,
      "simp": 848,
      "looks": 849,
      "imag": 850,
      "stead": 851,
      "ional": 852,
      "fall": 853,
      "actor": 854,
      "ither": 855,
      "ney": 856,
      "posed": 857,
      "certain": 858,
      "gether": 859,
      "together": 860,
      "watched": 861,
      "short": 862,
      "vis": 863,
      "istic": 864,
      "fic": 865,
      "atur": 866,
      "wast": 867,
      "vid": 868,
      "pet": 869,
      "true": 870,
      "three": 871,
      "bud": 872,
      "money": 873,
      "sty": 874,
      "usu": 875,
      "follow": 876,
      "everyone": 877,
      "effects": 878,
      "ward": 879,
      "pow": 880,
      "nice": 881,
      "special": 882,
      "fav": 883,
      "understand": 884,
      "rom": 885,
      "death": 886,
      "obvious": 887,
      "takes": 888,
      "fel": 889,
      "father": 890,
      "later": 891,
      "instead": 892,
      "excell": 893,
      "piece": 894,
      "anim": 895,
      "ics": 896,
      "disc": 897,
      "ates": 898,
      "said": 899,
      "ele": 900,
      "lish": 901,
      "tot": 902,
      "fight": 903,
      "super": 904,
      "bb": 905,
      "ons": 906,
      "20": 907,
      "ider": 908,
      "ker": 909,
      "review": 910,
      "ently": 911,
      "vide": 912,
      "beautiful": 913,
      "seeing": 914,
      "else": 915,
      "american": 916,
      "left": 917,
      "rid": 918,
      "version": 919,
      "cop": 920,
      "gener": 921,
      "defin": 922,
      "ences": 923,
      "begin": 924,
      "dead": 925,
      "ality": 926,
      "help": 927,
      "gre": 928,
      "others": 929,
      "audience": 930,
      "serious": 931,
      "top": 932,
      "excellent": 933,
      "bre": 934,
      "nor": 935,
      "iting": 936,
      "wife": 937,
      "que": 938,
      "ames": 939,
      "idea": 940,
      "itch": 941,
      "second": 942,
      "fla": 943,
      "entire": 944,
      "ken": 945,
      "sil": 946,
      "spe": 947,
      "lywood": 948,
      "what": 949,
      "invol": 950,
      "hist": 951,
      "half": 952,
      "hour": 953,
      "bur": 954,
      "cur": 955,
      "lud": 956,
      "ross": 957,
      "using": 958,
      "stup": 959,
      "camer": 960,
      "eas": 961,
      "ama": 962,
      "partic": 963,
      "cer": 964,
      "cal": 965,
      "remember": 966,
      "along": 967,
      "ident": 968,
      "pu": 969,
      "simply": 970,
      "fortun": 971,
      "log": 972,
      "given": 973,
      "clear": 974,
      "stupid": 975,
      "aps": 976,
      "completely": 977,
      "home": 978,
      "attempt": 979,
      "production": 980,
      "tray": 981,
      "cks": 982,
      "friends": 983,
      "portray": 984,
      "face": 985,
      "hero": 986,
      "stre": 987,
      "absol": 988,
      "song": 989,
      "bra": 990,
      "sad": 991,
      "scho": 992,
      "open": 993,
      "af": 994,
      "absolute": 995,
      "boring": 996,
      "ull": 997,
      "ends": 998,
      "heart": 999,
      "school": 1000,
      "hollywood": 1001,
      "ism": 1002,
      "wrong": 1003,
      "mark": 1004,
      "except": 1005,
      "exp": 1006,
      "jack": 1007,
      "appoint": 1008,
      "ye": 1009,
      "ones": 1010,
      "ists": 1011,
      "lad": 1012,
      "rent": 1013,
      "supposed": 1014,
      "mess": 1015,
      "side": 1016,
      "christ": 1017,
      "amaz": 1018,
      "dou": 1019,
      "kids": 1020,
      "ley": 1021,
      "disappoint": 1022,
      "ise": 1023,
      "near": 1024,
      "ann": 1025,
      "consider": 1026,
      "classic": 1027,
      "either": 1028,
      "band": 1029,
      "full": 1030,
      "particular": 1031,
      "women": 1032,
      "truly": 1033,
      "emot": 1034,
      "amp": 1035,
      "air": 1036,
      "cin": 1037,
      "couple": 1038,
      "performances": 1039,
      "small": 1040,
      "hope": 1041,
      "mother": 1042,
      "plain": 1043,
      "form": 1044,
      "case": 1045,
      "sever": 1046,
      "ited": 1047,
      "exam": 1048,
      "io": 1049,
      "atic": 1050,
      "sel": 1051,
      "definite": 1052,
      "list": 1053,
      "rol": 1054,
      "ign": 1055,
      "soci": 1056,
      "favor": 1057,
      "viol": 1058,
      "dri": 1059,
      "deser": 1060,
      "next": 1061,
      "ards": 1062,
      "fail": 1063,
      "power": 1064,
      "num": 1065,
      "ready": 1066,
      "stru": 1067,
      "dist": 1068,
      "name": 1069,
      "conv": 1070,
      "getting": 1071,
      "sort": 1072,
      "awful": 1073,
      "ress": 1074,
      "murder": 1075,
      "tom": 1076,
      "ature": 1077,
      "bert": 1078,
      "cl": 1079,
      "haps": 1080,
      "van": 1081,
      "ition": 1082,
      "perhaps": 1083,
      "uni": 1084,
      "gar": 1085,
      "humor": 1086,
      "ingly": 1087,
      "ography": 1088,
      "terrible": 1089,
      "drama": 1090,
      "playing": 1091,
      "miss": 1092,
      "camera": 1093,
      "die": 1094,
      "quest": 1095,
      "lines": 1096,
      "present": 1097,
      "dre": 1098,
      "gs": 1099,
      "ti": 1100,
      "loved": 1101,
      "wonderful": 1102,
      "budget": 1103,
      "ode": 1104,
      "ird": 1105,
      "oft": 1106,
      "path": 1107,
      "includ": 1108,
      "oh": 1109,
      "moments": 1110,
      "video": 1111,
      "bi": 1112,
      "deli": 1113,
      "velo": 1114,
      "guess": 1115,
      "gives": 1116,
      "definitely": 1117,
      "experi": 1118,
      "cinem": 1119,
      "meet": 1120,
      "episode": 1121,
      "often": 1122,
      "ere": 1123,
      "talent": 1124,
      "liked": 1125,
      "mention": 1126,
      "cine": 1127,
      "turns": 1128,
      "live": 1129,
      "stop": 1130,
      "sat": 1131,
      "ase": 1132,
      "ased": 1133,
      "win": 1134,
      "strong": 1135,
      "wish": 1136,
      "plan": 1137,
      "ought": 1138,
      "god": 1139,
      "early": 1140,
      "slow": 1141,
      "master": 1142,
      "unfortun": 1143,
      "finally": 1144,
      "children": 1145,
      "dark": 1146,
      "brilli": 1147,
      "ize": 1148,
      "ali": 1149,
      "develo": 1150,
      "ace": 1151,
      "coming": 1152,
      "0s": 1153,
      "dialogue": 1154,
      "went": 1155,
      "iness": 1156,
      "ping": 1157,
      "omb": 1158,
      "stars": 1159,
      "impress": 1160,
      "ring": 1161,
      "absolutely": 1162,
      "extre": 1163,
      "cinema": 1164,
      "ming": 1165,
      "dict": 1166,
      "become": 1167,
      "felt": 1168,
      "hun": 1169,
      "ility": 1170,
      "ities": 1171,
      "desp": 1172,
      "reg": 1173,
      "room": 1174,
      "title": 1175,
      "scar": 1176,
      "written": 1177,
      "ories": 1178,
      "certainly": 1179,
      "som": 1180,
      "ides": 1181,
      "unch": 1182,
      "tod": 1183,
      "town": 1184,
      "dy": 1185,
      "actress": 1186,
      "ended": 1187,
      "conf": 1188,
      "fair": 1189,
      "several": 1190,
      "tou": 1191,
      "lear": 1192,
      "etim": 1193,
      "overall": 1194,
      "style": 1195,
      "pat": 1196,
      "ese": 1197,
      "picture": 1198,
      "hon": 1199,
      "ital": 1200,
      "incre": 1201,
      "west": 1202,
      "possible": 1203,
      "but": 1204,
      "teen": 1205,
      "extreme": 1206,
      "lost": 1207,
      "rele": 1208,
      "bel": 1209,
      "cked": 1210,
      "vict": 1211,
      "worse": 1212,
      "guys": 1213,
      "ground": 1214,
      "entertaining": 1215,
      "problem": 1216,
      "ulous": 1217,
      "cess": 1218,
      "lor": 1219,
      "cing": 1220,
      "cred": 1221,
      "pop": 1222,
      "evil": 1223,
      "beginning": 1224,
      "based": 1225,
      "relation": 1226,
      "succ": 1227,
      "lat": 1228,
      "ention": 1229,
      "brilliant": 1230,
      "sw": 1231,
      "waste": 1232,
      "wanted": 1233,
      "nam": 1234,
      "hit": 1235,
      "sou": 1236,
      "pur": 1237,
      "ures": 1238,
      "gy": 1239,
      "past": 1240,
      "mid": 1241,
      "despite": 1242,
      "fans": 1243,
      "key": 1244,
      "fine": 1245,
      "totally": 1246,
      "seemed": 1247,
      "through": 1248,
      "mentary": 1249,
      "final": 1250,
      "ah": 1251,
      "mit": 1252,
      "tries": 1253,
      "jor": 1254,
      "ghter": 1255,
      "ats": 1256,
      "support": 1257,
      "chael": 1258,
      "becomes": 1259,
      "lig": 1260,
      "crit": 1261,
      "white": 1262,
      "ler": 1263,
      "spir": 1264,
      "spoil": 1265,
      "works": 1266,
      "direction": 1267,
      "game": 1268,
      "deal": 1269,
      "susp": 1270,
      "lie": 1271,
      "psy": 1272,
      "example": 1273,
      "success": 1274,
      "pass": 1275,
      "ding": 1276,
      "indi": 1277,
      "called": 1278,
      "va": 1279,
      "dep": 1280,
      "sci": 1281,
      "already": 1282,
      "lives": 1283,
      "michael": 1284,
      "ball": 1285,
      "leg": 1286,
      "zy": 1287,
      "bro": 1288,
      "hy": 1289,
      "days": 1290,
      "hind": 1291,
      "ench": 1292,
      "unfortunately": 1293,
      "known": 1294,
      "throughout": 1295,
      "sla": 1296,
      "gun": 1297,
      "vision": 1298,
      "ern": 1299,
      "relationship": 1300,
      "allow": 1301,
      "hold": 1302,
      "grou": 1303,
      "ages": 1304,
      "track": 1305,
      "crap": 1306,
      "today": 1307,
      "mal": 1308,
      "blood": 1309,
      "thrill": 1310,
      "quality": 1311,
      "can": 1312,
      "killer": 1313,
      "them": 1314,
      "cost": 1315,
      "writing": 1316,
      "ris": 1317,
      "fem": 1318,
      "amazing": 1319,
      "sto": 1320,
      "occ": 1321,
      "history": 1322,
      "ized": 1323,
      "dau": 1324,
      "close": 1325,
      "rob": 1326,
      "touch": 1327,
      "wants": 1328,
      "stuff": 1329,
      "uses": 1330,
      "import": 1331,
      "villa": 1332,
      "hop": 1333,
      "ery": 1334,
      "sha": 1335,
      "throw": 1336,
      "anno": 1337,
      "flick": 1338,
      "parts": 1339,
      "sometim": 1340,
      "vent": 1341,
      "horrible": 1342,
      "bed": 1343,
      "ron": 1344,
      "si": 1345,
      "ben": 1346,
      "din": 1347,
      "myster": 1348,
      "ams": 1349,
      "enjoyed": 1350,
      "eless": 1351,
      "orge": 1352,
      "stay": 1353,
      "bus": 1354,
      "city": 1355,
      "sor": 1356,
      "stra": 1357,
      "viewer": 1358,
      "hilar": 1359,
      "spect": 1360,
      "sch": 1361,
      "gave": 1362,
      "matter": 1363,
      "docu": 1364,
      "mil": 1365,
      "usual": 1366,
      "favorite": 1367,
      "ref": 1368,
      "behind": 1369,
      "appar": 1370,
      "girls": 1371,
      "antic": 1372,
      "none": 1373,
      "rock": 1374,
      "ety": 1375,
      "soon": 1376,
      "here": 1377,
      "anger": 1378,
      "police": 1379,
      "fig": 1380,
      "etic": 1381,
      "trans": 1382,
      "ek": 1383,
      "late": 1384,
      "tech": 1385,
      "kers": 1386,
      "posit": 1387,
      "colle": 1388,
      "killed": 1389,
      "var": 1390,
      "exact": 1391,
      "where": 1392,
      "contin": 1393,
      "ined": 1394,
      "intel": 1395,
      "dest": 1396,
      "major": 1397,
      "looked": 1398,
      "situ": 1399,
      "incredi": 1400,
      "bal": 1401,
      "eyes": 1402,
      "ister": 1403,
      "gn": 1404,
      "thank": 1405,
      "obviously": 1406,
      "sometimes": 1407,
      "decent": 1408,
      "sum": 1409,
      "hear": 1410,
      "willi": 1411,
      "cru": 1412,
      "starts": 1413,
      "directed": 1414,
      "level": 1415,
      "event": 1416,
      "genre": 1417,
      "don": 1418,
      "chang": 1419,
      "heard": 1420,
      "200": 1421,
      "moment": 1422,
      "stri": 1423,
      "pick": 1424,
      "novel": 1425,
      "group": 1426,
      "cool": 1427,
      "highly": 1428,
      "ridic": 1429,
      "wise": 1430,
      "says": 1431,
      "word": 1432,
      "explo": 1433,
      "cinemat": 1434,
      "shoot": 1435,
      "thinking": 1436,
      "ue": 1437,
      "move": 1438,
      "brit": 1439,
      "antly": 1440,
      "stud": 1441,
      "typ": 1442,
      "arr": 1443,
      "fre": 1444,
      "pose": 1445,
      "ile": 1446,
      "hot": 1447,
      "pay": 1448,
      "ys": 1449,
      "tele": 1450,
      "took": 1451,
      "tent": 1452,
      "void": 1453,
      "preci": 1454,
      "hilarious": 1455,
      "ses": 1456,
      "taking": 1457,
      "feeling": 1458,
      "cover": 1459,
      "ham": 1460,
      "hell": 1461,
      "tail": 1462,
      "ago": 1463,
      "lan": 1464,
      "tow": 1465,
      "bab": 1466,
      "step": 1467,
      "daughter": 1468,
      "met": 1469,
      "rating": 1470,
      "leave": 1471,
      "predict": 1472,
      "order": 1473,
      "four": 1474,
      "wit": 1475,
      "believable": 1476,
      "bring": 1477,
      "fron": 1478,
      "ured": 1479,
      "stic": 1480,
      "okes": 1481,
      "appro": 1482,
      "type": 1483,
      "david": 1484,
      "strange": 1485,
      "extremely": 1486,
      "happens": 1487,
      "prom": 1488,
      "fore": 1489,
      "ridiculous": 1490,
      "ffic": 1491,
      "hus": 1492,
      "sett": 1493,
      "score": 1494,
      "umb": 1495,
      "deep": 1496,
      "similar": 1497,
      "experience": 1498,
      "told": 1499,
      "anyway": 1500,
      "forget": 1501,
      "whe": 1502,
      "recent": 1503,
      "simple": 1504,
      "visu": 1505,
      "vol": 1506,
      "break": 1507,
      "living": 1508,
      "violence": 1509,
      "including": 1510,
      "inst": 1511,
      "stories": 1512,
      "sexual": 1513,
      "tage": 1514,
      "uss": 1515,
      "doub": 1516,
      "ired": 1517,
      "now": 1518,
      "opin": 1519,
      "taken": 1520,
      "save": 1521,
      "lou": 1522,
      "sym": 1523,
      "frank": 1524,
      "involved": 1525,
      "clu": 1526,
      "mas": 1527,
      "particularly": 1528,
      "expected": 1529,
      "james": 1530,
      "sher": 1531,
      "brother": 1532,
      "country": 1533,
      "oper": 1534,
      "robert": 1535,
      "gon": 1536,
      "polit": 1537,
      "husband": 1538,
      "musical": 1539,
      "honest": 1540,
      "huge": 1541,
      "happened": 1542,
      "chance": 1543,
      "please": 1544,
      "roles": 1545,
      "voice": 1546,
      "writer": 1547,
      "change": 1548,
      "turned": 1549,
      "mart": 1550,
      "sent": 1551,
      "cheap": 1552,
      "treat": 1553,
      "arch": 1554,
      "bey": 1555,
      "marri": 1556,
      "across": 1557,
      "bers": 1558,
      "atta": 1559,
      "del": 1560,
      "etc": 1561,
      "tre": 1562,
      "ze": 1563,
      "pain": 1564,
      "usually": 1565,
      "dies": 1566,
      "quick": 1567,
      "els": 1568,
      "rad": 1569,
      "rely": 1570,
      "subject": 1571,
      "english": 1572,
      "ief": 1573,
      "shown": 1574,
      "ky": 1575,
      "exactly": 1576,
      "realistic": 1577,
      "seriously": 1578,
      "ator": 1579,
      "hea": 1580,
      "jud": 1581,
      "eve": 1582,
      "number": 1583,
      "jokes": 1584,
      "natur": 1585,
      "ony": 1586,
      "py": 1587,
      "ational": 1588,
      "fut": 1589,
      "mist": 1590,
      "annoying": 1591,
      "ues": 1592,
      "words": 1593,
      "convinc": 1594,
      "gore": 1595,
      "by": 1596,
      "released": 1597,
      "moder": 1598,
      "thor": 1599,
      "street": 1600,
      "makers": 1601,
      "cinematography": 1602,
      "saying": 1603,
      "opening": 1604,
      "gri": 1605,
      "grow": 1606,
      "mad": 1607,
      "loc": 1608,
      "phot": 1609,
      "free": 1610,
      "cking": 1611,
      "foc": 1612,
      "swe": 1613,
      "mc": 1614,
      "reality": 1615,
      "sam": 1616,
      "urb": 1617,
      "cult": 1618,
      "happy": 1619,
      "shots": 1620,
      "whose": 1621,
      "avoid": 1622,
      "learn": 1623,
      "ray": 1624,
      "wer": 1625,
      "respect": 1626,
      "running": 1627,
      "roy": 1628,
      "ino": 1629,
      "shing": 1630,
      "box": 1631,
      "important": 1632,
      "earth": 1633,
      "lee": 1634,
      "lim": 1635,
      "talk": 1636,
      "space": 1637,
      "started": 1638,
      "dam": 1639,
      "pub": 1640,
      "alone": 1641,
      "among": 1642,
      "suspense": 1643,
      "female": 1644,
      "gang": 1645,
      "hours": 1646,
      "mostly": 1647,
      "apart": 1648,
      "batt": 1649,
      "ina": 1650,
      "oo": 1651,
      "ford": 1652,
      "build": 1653,
      "tract": 1654,
      "documentary": 1655,
      "comment": 1656,
      "fire": 1657,
      "ged": 1658,
      "shed": 1659,
      "opinion": 1660,
      "zomb": 1661,
      "clich": 1662,
      "ination": 1663,
      "ott": 1664,
      "possi": 1665,
      "season": 1666,
      "ided": 1667,
      "due": 1668,
      "198": 1669,
      "fit": 1670,
      "197": 1671,
      "beyond": 1672,
      "terri": 1673,
      "featur": 1674,
      "career": 1675,
      "basically": 1676,
      "knew": 1677,
      "secre": 1678,
      "silly": 1679,
      "remind": 1680,
      "stun": 1681,
      "dle": 1682,
      "local": 1683,
      "dog": 1684,
      "bla": 1685,
      "somewhat": 1686,
      "just": 1687,
      "ants": 1688,
      "detail": 1689,
      "rit": 1690,
      "richar": 1691,
      "appears": 1692,
      "sun": 1693,
      "odes": 1694,
      "modern": 1695,
      "cart": 1696,
      "zz": 1697,
      "camp": 1698,
      "ili": 1699,
      "imp": 1700,
      "team": 1701,
      "knows": 1702,
      "jap": 1703,
      "law": 1704,
      "weak": 1705,
      "finds": 1706,
      "ines": 1707,
      "down": 1708,
      "ared": 1709,
      "water": 1710,
      "eu": 1711,
      "giving": 1712,
      "dram": 1713,
      "scary": 1714,
      "famous": 1715,
      "draw": 1716,
      "apparently": 1717,
      "upon": 1718,
      "rich": 1719,
      "count": 1720,
      "outs": 1721,
      "clearly": 1722,
      "ctor": 1723,
      "french": 1724,
      "ith": 1725,
      "explain": 1726,
      "sets": 1727,
      "japan": 1728,
      "of": 1729,
      "wind": 1730,
      "sequence": 1731,
      "attention": 1732,
      "utter": 1733,
      "intellig": 1734,
      "dru": 1735,
      "dress": 1736,
      "premi": 1737,
      "tar": 1738,
      "predictable": 1739,
      "ances": 1740,
      "atmo": 1741,
      "single": 1742,
      "problems": 1743,
      "question": 1744,
      "deliver": 1745,
      "jer": 1746,
      "western": 1747,
      "ement": 1748,
      "necess": 1749,
      "equ": 1750,
      "enty": 1751,
      "ask": 1752,
      "television": 1753,
      "hate": 1754,
      "talking": 1755,
      "atmosp": 1756,
      "british": 1757,
      "gold": 1758,
      "episodes": 1759,
      "stick": 1760,
      "flo": 1761,
      "events": 1762,
      "tells": 1763,
      "reli": 1764,
      "george": 1765,
      "pped": 1766,
      "intro": 1767,
      "mix": 1768,
      "pal": 1769,
      "previous": 1770,
      "romantic": 1771,
      "aking": 1772,
      "sle": 1773,
      "lect": 1774,
      "const": 1775,
      "compa": 1776,
      "aged": 1777,
      "falls": 1778,
      "theat": 1779,
      "develop": 1780,
      "ges": 1781,
      "lots": 1782,
      "richard": 1783,
      "sters": 1784,
      "vir": 1785,
      "appreci": 1786,
      "narr": 1787,
      "whether": 1788,
      "199": 1789,
      "mater": 1790,
      "songs": 1791,
      "disappointed": 1792,
      "cas": 1793,
      "kept": 1794,
      "eye": 1795,
      "unlike": 1796,
      "creep": 1797,
      "acc": 1798,
      "straight": 1799,
      "named": 1800,
      "moving": 1801,
      "easily": 1802,
      "discover": 1803,
      "dull": 1804,
      "orable": 1805,
      "ka": 1806,
      "ose": 1807,
      "front": 1808,
      "cliché": 1809,
      "hen": 1810,
      "check": 1811,
      "aspect": 1812,
      "ised": 1813,
      "aver": 1814,
      "fest": 1815,
      "max": 1816,
      "hood": 1817,
      "bs": 1818,
      "dro": 1819,
      "needs": 1820,
      "wait": 1821,
      "sequences": 1822,
      "material": 1823,
      "ana": 1824,
      "effort": 1825,
      "doubt": 1826,
      "future": 1827,
      "supporting": 1828,
      "slight": 1829,
      "ceed": 1830,
      "paul": 1831,
      "entertainment": 1832,
      "comic": 1833,
      "fiel": 1834,
      "diffic": 1835,
      "ability": 1836,
      "twist": 1837,
      "carto": 1838,
      "extra": 1839,
      "tried": 1840,
      "lady": 1841,
      "working": 1842,
      "survi": 1843,
      "five": 1844,
      "more": 1845,
      "issu": 1846,
      "dialog": 1847,
      "middle": 1848,
      "filmed": 1849,
      "progr": 1850,
      "showing": 1851,
      "personal": 1852,
      "soldi": 1853,
      "easy": 1854,
      "bunch": 1855,
      "lam": 1856,
      "admit": 1857,
      "accept": 1858,
      "enjoyable": 1859,
      "rated": 1860,
      "parents": 1861,
      "bul": 1862,
      "dom": 1863,
      "speak": 1864,
      "within": 1865,
      "vy": 1866,
      "aff": 1867,
      "prof": 1868,
      "yor": 1869,
      "odd": 1870,
      "dance": 1871,
      "oscar": 1872,
      "beat": 1873,
      "nu": 1874,
      "cry": 1875,
      "fly": 1876,
      "vice": 1877,
      "ultim": 1878,
      "dream": 1879,
      "mary": 1880,
      "reve": 1881,
      "usion": 1882,
      "trou": 1883,
      "soundtrack": 1884,
      "bat": 1885,
      "cial": 1886,
      "bill": 1887,
      "fast": 1888,
      "vet": 1889,
      "grand": 1890,
      "ively": 1891,
      "ric": 1892,
      "peter": 1893,
      "30": 1894,
      "pathetic": 1895,
      "stage": 1896,
      "deed": 1897,
      "actual": 1898,
      "sugg": 1899,
      "gone": 1900,
      "express": 1901,
      "concer": 1902,
      "suggest": 1903,
      "message": 1904,
      "truth": 1905,
      "fanta": 1906,
      "cat": 1907,
      "sorry": 1908,
      "ars": 1909,
      "she": 1910,
      "feels": 1911,
      "jim": 1912,
      "match": 1913,
      "dol": 1914,
      "gan": 1915,
      "wear": 1916,
      "inno": 1917,
      "large": 1918,
      "theme": 1919,
      "san": 1920,
      "adap": 1921,
      "studi": 1922,
      "round": 1923,
      "surprised": 1924,
      "exist": 1925,
      "telling": 1926,
      "surprising": 1927,
      "greatest": 1928,
      "theater": 1929,
      "dden": 1930,
      "finish": 1931,
      "secret": 1932,
      "tect": 1933,
      "net": 1934,
      "typical": 1935,
      "resp": 1936,
      "eth": 1937,
      "monster": 1938,
      "buy": 1939,
      "period": 1940,
      "victim": 1941,
      "ution": 1942,
      "ously": 1943,
      "lease": 1944,
      "nearly": 1945,
      "otic": 1946,
      "sequel": 1947,
      "flaw": 1948,
      "andy": 1949,
      "prison": 1950,
      "tale": 1951,
      "bes": 1952,
      "contain": 1953,
      "comments": 1954,
      "flu": 1955,
      "feature": 1956,
      "smi": 1957,
      "shi": 1958,
      "imagine": 1959,
      "ension": 1960,
      "general": 1961,
      "ives": 1962,
      "okay": 1963,
      "ost": 1964,
      "sister": 1965,
      "viewing": 1966,
      "fied": 1967,
      "editing": 1968,
      "train": 1969,
      "storyline": 1970,
      "flash": 1971,
      "profess": 1972,
      "foo": 1973,
      "public": 1974,
      "introdu": 1975,
      "viewers": 1976,
      "difficult": 1977,
      "advent": 1978,
      "release": 1979,
      "teach": 1980,
      "medi": 1981,
      "points": 1982,
      "potent": 1983,
      "claim": 1984,
      "elements": 1985,
      "outh": 1986,
      "shame": 1987,
      "means": 1988,
      "meaning": 1989,
      "leads": 1990,
      "note": 1991,
      "descri": 1992,
      "thriller": 1993,
      "kills": 1994,
      "ders": 1995,
      "brought": 1996,
      "somehow": 1997,
      "demon": 1998,
      "sudden": 1999,
      "decided": 2000,
      "subt": 2001,
      "dramatic": 2002,
      "gay": 2003,
      "pen": 2004,
      "shar": 2005,
      "conne": 2006,
      "capt": 2007,
      "business": 2008,
      "ially": 2009,
      "lame": 2010,
      "sen": 2011,
      "boys": 2012,
      "catch": 2013,
      "forward": 2014,
      "if": 2015,
      "tten": 2016,
      "begins": 2017,
      "liter": 2018,
      "ults": 2019,
      "paris": 2020,
      "hur": 2021,
      "ught": 2022,
      "ength": 2023,
      "gest": 2024,
      "acted": 2025,
      "fantastic": 2026,
      "board": 2027,
      "ret": 2028,
      "refer": 2029,
      "chees": 2030,
      "animation": 2031,
      "ury": 2032,
      "eventually": 2033,
      "pure": 2034,
      "figure": 2035,
      "bil": 2036,
      "weird": 2037,
      "possibly": 2038,
      "sal": 2039,
      "york": 2040,
      "america": 2041,
      "premise": 2042,
      "pul": 2043,
      "natural": 2044,
      "fant": 2045,
      "ko": 2046,
      "crew": 2047,
      "forced": 2048,
      "jum": 2049,
      "baby": 2050,
      "loy": 2051,
      "reading": 2052,
      "cky": 2053,
      "surprise": 2054,
      "asy": 2055,
      "stere": 2056,
      "hom": 2057,
      "phil": 2058,
      "reviews": 2059,
      "exe": 2060,
      "background": 2061,
      "ering": 2062,
      "eli": 2063,
      "blow": 2064,
      "test": 2065,
      "atmosphere": 2066,
      "50": 2067,
      "table": 2068,
      "mystery": 2069,
      "bru": 2070,
      "third": 2071,
      "jour": 2072,
      "offer": 2073,
      "joe": 2074,
      "clever": 2075,
      "unless": 2076,
      "lier": 2077,
      "reco": 2078,
      "mel": 2079,
      "crime": 2080,
      "convincing": 2081,
      "indeed": 2082,
      "amoun": 2083,
      "ires": 2084,
      "doctor": 2085,
      "ening": 2086,
      "accent": 2087,
      "db": 2088,
      "ung": 2089,
      "writers": 2090,
      "oty": 2091,
      "killing": 2092,
      "week": 2093,
      "lies": 2094,
      "whatever": 2095,
      "commun": 2096,
      "kar": 2097,
      "became": 2098,
      "island": 2099,
      "field": 2100,
      "standing": 2101,
      "emotional": 2102,
      "result": 2103,
      "hair": 2104,
      "ii": 2105,
      "ral": 2106,
      "write": 2107,
      "han": 2108,
      "sul": 2109,
      "interested": 2110,
      "memorable": 2111,
      "poorly": 2112,
      "society": 2113,
      "berg": 2114,
      "control": 2115,
      "german": 2116,
      "copy": 2117,
      "igh": 2118,
      "project": 2119,
      "needed": 2120,
      "bored": 2121,
      "leading": 2122,
      "histor": 2123,
      "situation": 2124,
      "leaves": 2125,
      "total": 2126,
      "imdb": 2127,
      "romance": 2128,
      "battle": 2129,
      "len": 2130,
      "bother": 2131,
      "ram": 2132,
      "vot": 2133,
      "otherwise": 2134,
      "beauty": 2135,
      "average": 2136,
      "stal": 2137,
      "psycho": 2138,
      "las": 2139,
      "blu": 2140,
      "pas": 2141,
      "unique": 2142,
      "plus": 2143,
      "wil": 2144,
      "costum": 2145,
      "features": 2146,
      "meets": 2147,
      "credits": 2148,
      "ran": 2149,
      "nific": 2150,
      "nic": 2151,
      "strugg": 2152,
      "logical": 2153,
      "sens": 2154,
      "fran": 2155,
      "disney": 2156,
      "hands": 2157,
      "appeal": 2158,
      "stereoty": 2159,
      "resh": 2160,
      "setting": 2161,
      "worked": 2162,
      "ki": 2163,
      "keeps": 2164,
      "cheesy": 2165,
      "footage": 2166,
      "sli": 2167,
      "meant": 2168,
      "fu": 2169,
      "screenplay": 2170,
      "japanese": 2171,
      "cul": 2172,
      "minute": 2173,
      "mentioned": 2174,
      "superb": 2175,
      "nature": 2176,
      "gotten": 2177,
      "perfectly": 2178,
      "revol": 2179,
      "thus": 2180,
      "sounds": 2181,
      "ns": 2182,
      "cade": 2183,
      "popular": 2184,
      "pac": 2185,
      "80": 2186,
      "sar": 2187,
      "dumb": 2188,
      "fat": 2189,
      "offic": 2190,
      "badly": 2191,
      "inside": 2192,
      "quickly": 2193,
      "sleep": 2194,
      "exper": 2195,
      "ls": 2196,
      "ica": 2197,
      "spirit": 2198,
      "william": 2199,
      "regard": 2200,
      "towards": 2201,
      "male": 2202,
      "tor": 2203,
      "rope": 2204,
      "company": 2205,
      "emotion": 2206,
      "recogn": 2207,
      "milli": 2208,
      "disa": 2209,
      "fasc": 2210,
      "realize": 2211,
      "masterpiece": 2212,
      "concept": 2213,
      "villain": 2214,
      "kick": 2215,
      "compet": 2216,
      "cers": 2217,
      "cir": 2218,
      "fiction": 2219,
      "famili": 2220,
      "fairly": 2221,
      "venge": 2222,
      "flat": 2223,
      "vin": 2224,
      "attract": 2225,
      "comb": 2226,
      "ink": 2227,
      "stat": 2228,
      "embar": 2229,
      "familiar": 2230,
      "cro": 2231,
      "rede": 2232,
      "scott": 2233,
      "ager": 2234,
      "members": 2235,
      "era": 2236,
      "trad": 2237,
      "cape": 2238,
      "incredibly": 2239,
      "various": 2240,
      "ghost": 2241,
      "road": 2242,
      "pire": 2243,
      "earlier": 2244,
      "following": 2245,
      "tation": 2246,
      "laughs": 2247,
      "brain": 2248,
      "scient": 2249,
      "force": 2250,
      "older": 2251,
      "idi": 2252,
      "sn": 2253,
      "occas": 2254,
      "repe": 2255,
      "pleas": 2256,
      "ians": 2257,
      "create": 2258,
      "sick": 2259,
      "foot": 2260,
      "rate": 2261,
      "bot": 2262,
      "brings": 2263,
      "rass": 2264,
      "directors": 2265,
      "crazy": 2266,
      "portrayed": 2267,
      "agree": 2268,
      "illing": 2269,
      "reveal": 2270,
      "spent": 2271,
      "crow": 2272,
      "execut": 2273,
      "common": 2274,
      "mach": 2275,
      "directing": 2276,
      "fighting": 2277,
      "creepy": 2278,
      "mes": 2279,
      "suffer": 2280,
      "ake": 2281,
      "plenty": 2282,
      "visit": 2283,
      "invest": 2284,
      "alien": 2285,
      "recor": 2286,
      "powerful": 2287,
      "sweet": 2288,
      "lyn": 2289,
      "green": 2290,
      "iment": 2291,
      "trail": 2292,
      "iel": 2293,
      "wasted": 2294,
      "ered": 2295,
      "deserves": 2296,
      "talented": 2297,
      "development": 2298,
      "cartoon": 2299,
      "rand": 2300,
      "soli": 2301,
      "necessary": 2302,
      "asure": 2303,
      "ising": 2304,
      "phys": 2305,
      "langu": 2306,
      "color": 2307,
      "biz": 2308,
      "suit": 2309,
      "ideas": 2310,
      "reasons": 2311,
      "outside": 2312,
      "iny": 2313,
      "fred": 2314,
      "elling": 2315,
      "fails": 2316,
      "chann": 2317,
      "caught": 2318,
      "missed": 2319,
      "non": 2320,
      "return": 2321,
      "political": 2322,
      "cted": 2323,
      "died": 2324,
      "manages": 2325,
      "amount": 2326,
      "escape": 2327,
      "social": 2328,
      "cute": 2329,
      "ched": 2330,
      "expecting": 2331,
      "neg": 2332,
      "former": 2333,
      "satis": 2334,
      "fear": 2335,
      "joke": 2336,
      "pull": 2337,
      "ging": 2338,
      "casting": 2339,
      "attempts": 2340,
      "cock": 2341,
      "pace": 2342,
      "broad": 2343,
      "recently": 2344,
      "visual": 2345,
      "suspect": 2346,
      "desper": 2347,
      "bir": 2348,
      "missing": 2349,
      "iv": 2350,
      "achi": 2351,
      "ient": 2352,
      "national": 2353,
      "fying": 2354,
      "laughing": 2355,
      "rap": 2356,
      "az": 2357,
      "ban": 2358,
      "brief": 2359,
      "danger": 2360,
      "hardly": 2361,
      "created": 2362,
      "filmmakers": 2363,
      "trash": 2364,
      "ordin": 2365,
      "potential": 2366,
      "nud": 2367,
      "ude": 2368,
      "search": 2369,
      "gree": 2370,
      "ade": 2371,
      "hitch": 2372,
      "travel": 2373,
      "horri": 2374,
      "gent": 2375,
      "pun": 2376,
      "smo": 2377,
      "party": 2378,
      "girlfriend": 2379,
      "science": 2380,
      "ices": 2381,
      "subtle": 2382,
      "hill": 2383,
      "ival": 2384,
      "gover": 2385,
      "esome": 2386,
      "196": 2387,
      "state": 2388,
      "depth": 2389,
      "beha": 2390,
      "accident": 2391,
      "ug": 2392,
      "terror": 2393,
      "complex": 2394,
      "chase": 2395,
      "ero": 2396,
      "remake": 2397,
      "married": 2398,
      "imm": 2399,
      "slightly": 2400,
      "rey": 2401,
      "filled": 2402,
      "contri": 2403,
      "logy": 2404,
      "considering": 2405,
      "incredible": 2406,
      "wild": 2407,
      "tend": 2408,
      "vail": 2409,
      "credit": 2410,
      "nudity": 2411,
      "immedi": 2412,
      "funni": 2413,
      "post": 2414,
      "intri": 2415,
      "store": 2416,
      "actions": 2417,
      "trip": 2418,
      "jane": 2419,
      "gor": 2420,
      "waiting": 2421,
      "entirely": 2422,
      "ius": 2423,
      "deci": 2424,
      "europe": 2425,
      "embarrass": 2426,
      "arri": 2427,
      "rish": 2428,
      "while": 2429,
      "reach": 2430,
      "disgu": 2431,
      "bizar": 2432,
      "aging": 2433,
      "intelligent": 2434,
      "glad": 2435,
      "exciting": 2436,
      "spoilers": 2437,
      "ded": 2438,
      "approach": 2439,
      "neither": 2440,
      "dancing": 2441,
      "tension": 2442,
      "insp": 2443,
      "elly": 2444,
      "sadly": 2445,
      "after": 2446,
      "cold": 2447,
      "walk": 2448,
      "ier": 2449,
      "shad": 2450,
      "carri": 2451,
      "site": 2452,
      "delight": 2453,
      "izing": 2454,
      "tort": 2455,
      "chem": 2456,
      "sell": 2457,
      "six": 2458,
      "cross": 2459,
      "east": 2460,
      "decides": 2461,
      "zombie": 2462,
      "compared": 2463,
      "produced": 2464,
      "pan": 2465,
      "door": 2466,
      "195": 2467,
      "bility": 2468,
      "vam": 2469,
      "follows": 2470,
      "appreciate": 2471,
      "rece": 2472,
      "moves": 2473,
      "acts": 2474,
      "fantasy": 2475,
      "rend": 2476,
      "aked": 2477,
      "biggest": 2478,
      "mere": 2479,
      "sees": 2480,
      "istry": 2481,
      "194": 2482,
      "scream": 2483,
      "portrayal": 2484,
      "faith": 2485,
      "genu": 2486,
      "rick": 2487,
      "sess": 2488,
      "angel": 2489,
      "squ": 2490,
      "violent": 2491,
      "successful": 2492,
      "90": 2493,
      "solid": 2494,
      "chu": 2495,
      "ots": 2496,
      "italian": 2497,
      "amusing": 2498,
      "sport": 2499,
      "pointless": 2500,
      "ash": 2501,
      "date": 2502,
      "requ": 2503,
      "prin": 2504,
      "trouble": 2505,
      "suddenly": 2506,
      "value": 2507,
      "depend": 2508,
      "kin": 2509,
      "ald": 2510,
      "bear": 2511,
      "younger": 2512,
      "genuine": 2513,
      "bol": 2514,
      "sand": 2515,
      "humour": 2516,
      "bon": 2517,
      "language": 2518,
      "rote": 2519,
      "paint": 2520,
      "chan": 2521,
      "sco": 2522,
      "bling": 2523,
      "gory": 2524,
      "hang": 2525,
      "haun": 2526,
      "dad": 2527,
      "alth": 2528,
      "office": 2529,
      "park": 2530,
      "ultimately": 2531,
      "aside": 2532,
      "minor": 2533,
      "sky": 2534,
      "yeah": 2535,
      "disturb": 2536,
      "lets": 2537,
      "studio": 2538,
      "college": 2539,
      "mage": 2540,
      "indu": 2541,
      "wrote": 2542,
      "century": 2543,
      "decide": 2544,
      "bizarre": 2545,
      "producers": 2546,
      "pping": 2547,
      "brothers": 2548,
      "enter": 2549,
      "involving": 2550,
      "olf": 2551,
      "lay": 2552,
      "critic": 2553,
      "images": 2554,
      "answer": 2555,
      "gic": 2556,
      "tagon": 2557,
      "base": 2558,
      "choice": 2559,
      "impressive": 2560,
      "basic": 2561,
      "detect": 2562,
      "bond": 2563,
      "awesome": 2564,
      "rema": 2565,
      "stan": 2566,
      "presented": 2567,
      "emp": 2568,
      "iss": 2569,
      "spend": 2570,
      "focus": 2571,
      "gem": 2572,
      "brut": 2573,
      "sey": 2574,
      "positive": 2575,
      "pit": 2576,
      "likes": 2577,
      "juli": 2578,
      "193": 2579,
      "sitting": 2580,
      "worthy": 2581,
      "continu": 2582,
      "thanks": 2583,
      "avail": 2584,
      "recommended": 2585,
      "breat": 2586,
      "concl": 2587,
      "books": 2588,
      "mood": 2589,
      "sig": 2590,
      "pieces": 2591,
      "100": 2592,
      "15": 2593,
      "impossible": 2594,
      "assu": 2595,
      "added": 2596,
      "def": 2597,
      "proper": 2598,
      "commit": 2599,
      "techn": 2600,
      "journey": 2601,
      "channel": 2602,
      "govern": 2603,
      "cam": 2604,
      "tough": 2605,
      "hey": 2606,
      "alive": 2607,
      "cause": 2608,
      "leaving": 2609,
      "south": 2610,
      "maker": 2611,
      "cious": 2612,
      "hid": 2613,
      "ises": 2614,
      "somewhere": 2615,
      "christmas": 2616,
      "situations": 2617,
      "vampire": 2618,
      "affect": 2619,
      "mir": 2620,
      "taste": 2621,
      "considered": 2622,
      "changed": 2623,
      "alex": 2624,
      "longer": 2625,
      "crimin": 2626,
      "questions": 2627,
      "russ": 2628,
      "thes": 2629,
      "lock": 2630,
      "oph": 2631,
      "effective": 2632,
      "formation": 2633,
      "fascin": 2634,
      "fake": 2635,
      "purpose": 2636,
      "matt": 2637,
      "remo": 2638,
      "rac": 2639,
      "bage": 2640,
      "barely": 2641,
      "turning": 2642,
      "audiences": 2643,
      "grad": 2644,
      "singing": 2645,
      "showed": 2646,
      "tone": 2647,
      "pair": 2648,
      "sign": 2649,
      "anth": 2650,
      "values": 2651,
      "consist": 2652,
      "soul": 2653,
      "psych": 2654,
      "culture": 2655,
      "pse": 2656,
      "ener": 2657,
      "prove": 2658,
      "carry": 2659,
      "normal": 2660,
      "revenge": 2661,
      "itive": 2662,
      "manner": 2663,
      "grace": 2664,
      "legend": 2665,
      "surprisingly": 2666,
      "ordinary": 2667,
      "mass": 2668,
      "bomb": 2669,
      "plane": 2670,
      "hall": 2671,
      "anda": 2672,
      "thinks": 2673,
      "tired": 2674,
      "planet": 2675,
      "bought": 2676,
      "ived": 2677,
      "zo": 2678,
      "opport": 2679,
      "opportun": 2680,
      "appearance": 2681,
      "andre": 2682,
      "craft": 2683,
      "dir": 2684,
      "stereotyp": 2685,
      "milit": 2686,
      "respons": 2687,
      "literally": 2688,
      "tun": 2689,
      "starring": 2690,
      "immediately": 2691,
      "accur": 2692,
      "magic": 2693,
      "smart": 2694,
      "chap": 2695,
      "gag": 2696,
      "thur": 2697,
      "depress": 2698,
      "amate": 2699,
      "pract": 2700,
      "random": 2701,
      "ack": 2702,
      "cell": 2703,
      "chur": 2704,
      "pictures": 2705,
      "issues": 2706,
      "remark": 2707,
      "runs": 2708,
      "shock": 2709,
      "stunning": 2710,
      "fal": 2711,
      "glo": 2712,
      "witch": 2713,
      "born": 2714,
      "garbage": 2715,
      "jen": 2716,
      "edge": 2717,
      "counter": 2718,
      "notice": 2719,
      "charles": 2720,
      "club": 2721,
      "iced": 2722,
      "suc": 2723,
      "inspired": 2724,
      "fash": 2725,
      "honestly": 2726,
      "smith": 2727,
      "uc": 2728,
      "chemistry": 2729,
      "available": 2730,
      "wall": 2731,
      "appeared": 2732,
      "blue": 2733,
      "names": 2734,
      "fish": 2735,
      "soldiers": 2736,
      "innocent": 2737,
      "mm": 2738,
      "erson": 2739,
      "standard": 2740,
      "thom": 2741,
      "genius": 2742,
      "shooting": 2743,
      "disturbing": 2744,
      "fru": 2745,
      "pil": 2746,
      "depict": 2747,
      "ensive": 2748,
      "personally": 2749,
      "affair": 2750,
      "ization": 2751,
      "curi": 2752,
      "gas": 2753,
      "nie": 2754,
      "nobody": 2755,
      "investig": 2756,
      "rog": 2757,
      "adult": 2758,
      "allen": 2759,
      "everybody": 2760,
      "sexy": 2761,
      "exception": 2762,
      "remains": 2763,
      "essent": 2764,
      "favour": 2765,
      "mysterious": 2766,
      "cow": 2767,
      "army": 2768,
      "lik": 2769,
      "qui": 2770,
      "passion": 2771,
      "adventure": 2772,
      "interview": 2773,
      "remain": 2774,
      "rupt": 2775,
      "generally": 2776,
      "failed": 2777,
      "ining": 2778,
      "init": 2779,
      "sting": 2780,
      "lit": 2781,
      "via": 2782,
      "phone": 2783,
      "twists": 2784,
      "uter": 2785,
      "itation": 2786,
      "changes": 2787,
      "destroy": 2788,
      "load": 2789,
      "drug": 2790,
      "intrigu": 2791,
      "festival": 2792,
      "author": 2793,
      "animated": 2794,
      "ai": 2795,
      "iff": 2796,
      "nast": 2797,
      "fell": 2798,
      "flow": 2799,
      "jones": 2800,
      "mr": 2801,
      "cher": 2802,
      "fox": 2803,
      "beautifully": 2804,
      "succeed": 2805,
      "jun": 2806,
      "oli": 2807,
      "ilt": 2808,
      "ester": 2809,
      "jeff": 2810,
      "stem": 2811,
      "likely": 2812,
      "places": 2813,
      "bottom": 2814,
      "conclusion": 2815,
      "lum": 2816,
      "moral": 2817,
      "silent": 2818,
      "hosp": 2819,
      "attack": 2820,
      "million": 2821,
      "accomp": 2822,
      "breath": 2823,
      "government": 2824,
      "nom": 2825,
      "knowing": 2826,
      "clar": 2827,
      "chel": 2828,
      "steve": 2829,
      "provi": 2830,
      "boss": 2831,
      "kness": 2832,
      "grant": 2833,
      "shop": 2834,
      "rage": 2835,
      "stew": 2836,
      "computer": 2837,
      "cinematic": 2838,
      "lond": 2839,
      "utterly": 2840,
      "constantly": 2841,
      "likable": 2842,
      "london": 2843,
      "dor": 2844,
      "evid": 2845,
      "insul": 2846,
      "obsess": 2847,
      "circ": 2848,
      "anne": 2849,
      "termin": 2850,
      "walking": 2851,
      "flashback": 2852,
      "tro": 2853,
      "iron": 2854,
      "anks": 2855,
      "fresh": 2856,
      "naked": 2857,
      "intended": 2858,
      "lude": 2859,
      "belief": 2860,
      "self": 2861,
      "impression": 2862,
      "occur": 2863,
      "ened": 2864,
      "chris": 2865,
      "nowhere": 2866,
      "program": 2867,
      "loves": 2868,
      "ctions": 2869,
      "terrific": 2870,
      "details": 2871,
      "stone": 2872,
      "chick": 2873,
      "neigh": 2874,
      "ters": 2875,
      "melo": 2876,
      "emotions": 2877,
      "developed": 2878,
      "redeem": 2879,
      "ivi": 2880,
      "ican": 2881,
      "ette": 2882,
      "raid": 2883,
      "terms": 2884,
      "position": 2885,
      "witness": 2886,
      "lovely": 2887,
      "70": 2888,
      "nan": 2889,
      "wed": 2890,
      "news": 2891,
      "comedies": 2892,
      "loud": 2893,
      "victor": 2894,
      "justice": 2895,
      "bum": 2896,
      "mom": 2897,
      "slasher": 2898,
      "gal": 2899,
      "month": 2900,
      "award": 2901,
      "hurt": 2902,
      "fashion": 2903,
      "mouth": 2904,
      "intent": 2905,
      "historical": 2906,
      "inspir": 2907,
      "threat": 2908,
      "mental": 2909,
      "presence": 2910,
      "ties": 2911,
      "giant": 2912,
      "enced": 2913,
      "lett": 2914,
      "climax": 2915,
      "photography": 2916,
      "gin": 2917,
      "mic": 2918,
      "ride": 2919,
      "austr": 2920,
      "besides": 2921,
      "scenery": 2922,
      "surely": 2923,
      "charming": 2924,
      "civil": 2925,
      "roll": 2926,
      "thrown": 2927,
      "military": 2928,
      "wow": 2929,
      "protagon": 2930,
      "harry": 2931,
      "slowly": 2932,
      "spoiler": 2933,
      "loose": 2934,
      "chin": 2935,
      "gry": 2936,
      "izes": 2937,
      "indian": 2938,
      "vidu": 2939,
      "individu": 2940,
      "adaptation": 2941,
      "vor": 2942,
      "design": 2943,
      "syn": 2944,
      "bled": 2945,
      "suppose": 2946,
      "costumes": 2947,
      "stin": 2948,
      "icide": 2949,
      "rare": 2950,
      "charm": 2951,
      "surround": 2952,
      "steal": 2953,
      "contains": 2954,
      "sna": 2955,
      "onto": 2956,
      "viet": 2957,
      "billy": 2958,
      "bow": 2959,
      "mill": 2960,
      "confli": 2961,
      "commer": 2962,
      "painful": 2963,
      "producer": 2964,
      "motion": 2965,
      "building": 2966,
      "influ": 2967,
      "aper": 2968,
      "vert": 2969,
      "stands": 2970,
      "narrative": 2971,
      "moun": 2972,
      "moon": 2973,
      "managed": 2974,
      "intense": 2975,
      "struct": 2976,
      "sight": 2977,
      "ston": 2978,
      "hip": 2979,
      "brid": 2980,
      "zombies": 2981,
      "laughable": 2982,
      "ech": 2983,
      "vey": 2984,
      "central": 2985,
      "und": 2986,
      "ples": 2987,
      "univers": 2988,
      "equally": 2989,
      "outstanding": 2990,
      "shadow": 2991,
      "hospital": 2992,
      "afr": 2993,
      "tem": 2994,
      "zen": 2995,
      "independ": 2996,
      "spar": 2997,
      "excuse": 2998,
      "critics": 2999,
      "filming": 3000,
      "andon": 3001,
      "verse": 3002,
      "appropri": 3003,
      "ya": 3004,
      "alter": 3005,
      "disappointing": 3006,
      "austral": 3007,
      "dum": 3008,
      "drun": 3009,
      "willing": 3010,
      "clean": 3011,
      "christian": 3012,
      "themes": 3013,
      "hoping": 3014,
      "watchable": 3015,
      "medio": 3016,
      "opera": 3017,
      "theless": 3018,
      "unbelievable": 3019,
      "serial": 3020,
      "system": 3021,
      "mission": 3022,
      "feelings": 3023,
      "puts": 3024,
      "opher": 3025,
      "skip": 3026,
      "touching": 3027,
      "ira": 3028,
      "dollar": 3029,
      "arts": 3030,
      "correct": 3031,
      "difference": 3032,
      "shakes": 3033,
      "summer": 3034,
      "hitchcock": 3035,
      "ades": 3036,
      "mainly": 3037,
      "aspects": 3038,
      "awk": 3039,
      "confusing": 3040,
      "detective": 3041,
      "escap": 3042,
      "lighting": 3043,
      "achiev": 3044,
      "sis": 3045,
      "oughly": 3046,
      "boyfriend": 3047,
      "gged": 3048,
      "ain": 3049,
      "length": 3050,
      "ites": 3051,
      "race": 3052,
      "attractive": 3053,
      "jon": 3054,
      "resem": 3055,
      "bits": 3056,
      "pra": 3057,
      "tes": 3058,
      "finding": 3059,
      "student": 3060,
      "martin": 3061,
      "dick": 3062,
      "imagin": 3063,
      "laughter": 3064,
      "tony": 3065,
      "bruce": 3066,
      "church": 3067,
      "absur": 3068,
      "spot": 3069,
      "queen": 3070,
      "market": 3071,
      "gro": 3072,
      "fellow": 3073,
      "radio": 3074,
      "heavy": 3075,
      "behavi": 3076,
      "laughed": 3077,
      "fle": 3078,
      "wy": 3079,
      "comfort": 3080,
      "include": 3081,
      "grade": 3082,
      "content": 3083,
      "eat": 3084,
      "provid": 3085,
      "faces": 3086,
      "unt": 3087,
      "core": 3088,
      "impressed": 3089,
      "confused": 3090,
      "kno": 3091,
      "rus": 3092,
      "charlie": 3093,
      "stein": 3094,
      "woods": 3095,
      "expectations": 3096,
      "stock": 3097,
      "mistake": 3098,
      "shes": 3099,
      "agent": 3100,
      "plots": 3101,
      "virt": 3102,
      "bour": 3103,
      "traged": 3104,
      "titles": 3105,
      "fool": 3106,
      "fascinating": 3107,
      "ahead": 3108,
      "image": 3109,
      "emy": 3110,
      "prop": 3111,
      "buff": 3112,
      "ledge": 3113,
      "addition": 3114,
      "disappointment": 3115,
      "subst": 3116,
      "opportunity": 3117,
      "accurate": 3118,
      "gorge": 3119,
      "kelly": 3120,
      "vari": 3121,
      "stewart": 3122,
      "bles": 3123,
      "stom": 3124,
      "lights": 3125,
      "mine": 3126,
      "christopher": 3127,
      "dreams": 3128,
      "wis": 3129,
      "supposedly": 3130,
      "paid": 3131,
      "placed": 3132,
      "holes": 3133,
      "bbed": 3134,
      "fright": 3135,
      "trust": 3136,
      "dun": 3137,
      "share": 3138,
      "lass": 3139,
      "location": 3140,
      "conflict": 3141,
      "nick": 3142,
      "hook": 3143,
      "decis": 3144,
      "aim": 3145,
      "information": 3146,
      "lived": 3147,
      "drawn": 3148,
      "birth": 3149,
      "40": 3150,
      "sea": 3151,
      "host": 3152,
      "speaking": 3153,
      "drive": 3154,
      "collection": 3155,
      "los": 3156,
      "lover": 3157,
      "weap": 3158,
      "forever": 3159,
      "bath": 3160,
      "comman": 3161,
      "lacks": 3162,
      "compelling": 3163,
      "dread": 3164,
      "mild": 3165,
      "wel": 3166,
      "students": 3167,
      "professional": 3168,
      "cab": 3169,
      "steven": 3170,
      "desc": 3171,
      "absurd": 3172,
      "fing": 3173,
      "stor": 3174,
      "distr": 3175,
      "funniest": 3176,
      "argu": 3177,
      "adds": 3178,
      "lessly": 3179,
      "creative": 3180,
      "lord": 3181,
      "stood": 3182,
      "drugs": 3183,
      "ku": 3184,
      "allowed": 3185,
      "irrit": 3186,
      "ante": 3187,
      "spectac": 3188,
      "marriage": 3189,
      "regular": 3190,
      "hat": 3191,
      "station": 3192,
      "process": 3193,
      "tran": 3194,
      "object": 3195,
      "captain": 3196,
      "mex": 3197,
      "itude": 3198,
      "folks": 3199,
      "photograph": 3200,
      "amed": 3201,
      "boat": 3202,
      "twice": 3203,
      "wide": 3204,
      "falling": 3205,
      "negative": 3206,
      "gorgeous": 3207,
      "nal": 3208,
      "reminded": 3209,
      "trick": 3210,
      "theref": 3211,
      "rescu": 3212,
      "luck": 3213,
      "helps": 3214,
      "offers": 3215,
      "damn": 3216,
      "cele": 3217,
      "serv": 3218,
      "flicks": 3219,
      "soldier": 3220,
      "therefore": 3221,
      "apo": 3222,
      "dated": 3223,
      "lon": 3224,
      "devil": 3225,
      "naz": 3226,
      "possess": 3227,
      "followed": 3228,
      "norm": 3229,
      "proves": 3230,
      "oken": 3231,
      "delivers": 3232,
      "quiet": 3233,
      "jason": 3234,
      "stry": 3235,
      "happening": 3236,
      "ific": 3237,
      "card": 3238,
      "mut": 3239,
      "proved": 3240,
      "forgotten": 3241,
      "calls": 3242,
      "relationships": 3243,
      "blind": 3244,
      "occasion": 3245,
      "ugly": 3246,
      "remote": 3247,
      "provides": 3248,
      "becoming": 3249,
      "ints": 3250,
      "cops": 3251,
      "henry": 3252,
      "arily": 3253,
      "lished": 3254,
      "pleasant": 3255,
      "shakespe": 3256,
      "native": 3257,
      "porn": 3258,
      "doug": 3259,
      "anna": 3260,
      "jan": 3261,
      "superi": 3262,
      "bright": 3263,
      "seemingly": 3264,
      "merely": 3265,
      "uous": 3266,
      "adults": 3267,
      "rain": 3268,
      "feat": 3269,
      "frustr": 3270,
      "bell": 3271,
      "jes": 3272,
      "industry": 3273,
      "model": 3274,
      "stuck": 3275,
      "jackson": 3276,
      "mediocre": 3277,
      "thats": 3278,
      "seg": 3279,
      "wondering": 3280,
      "hide": 3281,
      "prefer": 3282,
      "span": 3283,
      "trailer": 3284,
      "suicide": 3285,
      "putting": 3286,
      "bby": 3287,
      "listen": 3288,
      "arm": 3289,
      "horse": 3290,
      "fra": 3291,
      "leader": 3292,
      "impact": 3293,
      "thoroughly": 3294,
      "dear": 3295,
      "anymore": 3296,
      "states": 3297,
      "jean": 3298,
      "russian": 3299,
      "ior": 3300,
      "secon": 3301,
      "hotel": 3302,
      "batman": 3303,
      "angry": 3304,
      "scare": 3305,
      "asks": 3306,
      "danny": 3307,
      "vac": 3308,
      "rented": 3309,
      "victims": 3310,
      "nasty": 3311,
      "chas": 3312,
      "mini": 3313,
      "americans": 3314,
      "block": 3315,
      "area": 3316,
      "seven": 3317,
      "itional": 3318,
      "explan": 3319,
      "magnific": 3320,
      "bland": 3321,
      "kidn": 3322,
      "element": 3323,
      "dressed": 3324,
      "drop": 3325,
      "games": 3326,
      "formu": 3327,
      "latter": 3328,
      "seconds": 3329,
      "hab": 3330,
      "contra": 3331,
      "north": 3332,
      "convers": 3333,
      "ryan": 3334,
      "fur": 3335,
      "tragic": 3336,
      "teacher": 3337,
      "ify": 3338,
      "slo": 3339,
      "intention": 3340,
      "aware": 3341,
      "warning": 3342,
      "kev": 3343,
      "artist": 3344,
      "epic": 3345,
      "shocking": 3346,
      "progress": 3347,
      "acade": 3348,
      "grat": 3349,
      "helped": 3350,
      "breaking": 3351,
      "deserved": 3352,
      "physical": 3353,
      "celebr": 3354,
      "inct": 3355,
      "thir": 3356,
      "artistic": 3357,
      "18": 3358,
      "asked": 3359,
      "wooden": 3360,
      "childhood": 3361,
      "picked": 3362,
      "repeated": 3363,
      "snow": 3364,
      "tu": 3365,
      "zero": 3366,
      "aton": 3367,
      "estab": 3368,
      "strength": 3369,
      "page": 3370,
      "standards": 3371,
      "barbar": 3372,
      "heads": 3373,
      "actresses": 3374,
      "pup": 3375,
      "aries": 3376,
      "murders": 3377,
      "imagination": 3378,
      "afraid": 3379,
      "machine": 3380,
      "aid": 3381,
      "ils": 3382,
      "unexpected": 3383,
      "warm": 3384,
      "contem": 3385,
      "nin": 3386,
      "nes": 3387,
      "returns": 3388,
      "ules": 3389,
      "gious": 3390,
      "animals": 3391,
      "canad": 3392,
      "sympath": 3393,
      "scientist": 3394,
      "kevin": 3395,
      "hs": 3396,
      "lying": 3397,
      "depart": 3398,
      "realized": 3399,
      "relative": 3400,
      "slap": 3401,
      "jerry": 3402,
      "compare": 3403,
      "disaster": 3404,
      "tragedy": 3405,
      "sour": 3406,
      "lem": 3407,
      "deman": 3408,
      "accor": 3409,
      "priest": 3410,
      "held": 3411,
      "ets": 3412,
      "quot": 3413,
      "noir": 3414,
      "cgi": 3415,
      "provide": 3416,
      "window": 3417,
      "flaws": 3418,
      "moved": 3419,
      "igned": 3420,
      "personality": 3421,
      "shakespeare": 3422,
      "eight": 3423,
      "lift": 3424,
      "brook": 3425,
      "bing": 3426,
      "clothes": 3427,
      "remarkable": 3428,
      "formula": 3429,
      "lind": 3430,
      "lose": 3431,
      "adam": 3432,
      "gene": 3433,
      "dirty": 3434,
      "ano": 3435,
      "brian": 3436,
      "awn": 3437,
      "friendship": 3438,
      "explained": 3439,
      "dying": 3440,
      "youth": 3441,
      "heaven": 3442,
      "wearing": 3443,
      "bank": 3444,
      "illa": 3445,
      "agger": 3446,
      "hund": 3447,
      "theatre": 3448,
      "continue": 3449,
      "forgettable": 3450,
      "thomas": 3451,
      "superior": 3452,
      "punch": 3453,
      "sion": 3454,
      "commentary": 3455,
      "12": 3456,
      "dig": 3457,
      "food": 3458,
      "advan": 3459,
      "insight": 3460,
      "creature": 3461,
      "tex": 3462,
      "johnny": 3463,
      "teenage": 3464,
      "describe": 3465,
      "energy": 3466,
      "brown": 3467,
      "separ": 3468,
      "wars": 3469,
      "understanding": 3470,
      "speech": 3471,
      "numbers": 3472,
      "hay": 3473,
      "fill": 3474,
      "ison": 3475,
      "issue": 3476,
      "chuck": 3477,
      "credi": 3478,
      "limited": 3479,
      "apartment": 3480,
      "unknown": 3481,
      "rarely": 3482,
      "williams": 3483,
      "responsible": 3484,
      "za": 3485,
      "bob": 3486,
      "torture": 3487,
      "loss": 3488,
      "favourite": 3489,
      "chop": 3490,
      "mac": 3491,
      "soft": 3492,
      "began": 3493,
      "graphic": 3494,
      "noticed": 3495,
      "elect": 3496,
      "rose": 3497,
      "comparis": 3498,
      "pret": 3499,
      "presents": 3500,
      "skin": 3501,
      "chinese": 3502,
      "brad": 3503,
      "dish": 3504,
      "suff": 3505,
      "tears": 3506,
      "fights": 3507,
      "ey": 3508,
      "soever": 3509,
      "product": 3510,
      "animal": 3511,
      "flying": 3512,
      "introduced": 3513,
      "independent": 3514,
      "redeeming": 3515,
      "wanting": 3516,
      "deeply": 3517,
      "golden": 3518,
      "domin": 3519,
      "gary": 3520,
      "arthur": 3521,
      "rape": 3522,
      "anybody": 3523,
      "president": 3524,
      "creating": 3525,
      "speed": 3526,
      "cruel": 3527,
      "martial": 3528,
      "intelligence": 3529,
      "intriguing": 3530,
      "gl": 3531,
      "igno": 3532,
      "whatsoever": 3533,
      "mult": 3534,
      "nel": 3535,
      "tol": 3536,
      "bloody": 3537,
      "judge": 3538,
      "finished": 3539,
      "brutal": 3540,
      "fits": 3541,
      "vate": 3542,
      "zed": 3543,
      "oud": 3544,
      "oppo": 3545,
      "hidden": 3546,
      "mountain": 3547,
      "iling": 3548,
      "loving": 3549,
      "hundred": 3550,
      "reminds": 3551,
      "clichés": 3552,
      "13": 3553,
      "spl": 3554,
      "uel": 3555,
      "mum": 3556,
      "stro": 3557,
      "owner": 3558,
      "tape": 3559,
      "ousy": 3560,
      "whil": 3561,
      "mike": 3562,
      "struggle": 3563,
      "rors": 3564,
      "lion": 3565,
      "unusual": 3566,
      "wee": 3567,
      "perform": 3568,
      "wonderfully": 3569,
      "matth": 3570,
      "deserve": 3571,
      "ied": 3572,
      "vhs": 3573,
      "erous": 3574,
      "dim": 3575,
      "memory": 3576,
      "double": 3577,
      "bid": 3578,
      "comedic": 3579,
      "blame": 3580,
      "desert": 3581,
      "ena": 3582,
      "realism": 3583,
      "represent": 3584,
      "itty": 3585,
      "powers": 3586,
      "holds": 3587,
      "dangerous": 3588,
      "tick": 3589,
      "ency": 3590,
      "sta": 3591,
      "educ": 3592,
      "partner": 3593,
      "buck": 3594,
      "wards": 3595,
      "experiment": 3596,
      "sir": 3597,
      "dee": 3598,
      "filmmaker": 3599,
      "record": 3600,
      "whilst": 3601,
      "cate": 3602,
      "nold": 3603,
      "captur": 3604,
      "60": 3605,
      "iest": 3606,
      "mate": 3607,
      "somebody": 3608,
      "disco": 3609,
      "belong": 3610,
      "heroes": 3611,
      "gags": 3612,
      "ches": 3613,
      "river": 3614,
      "uncle": 3615,
      "pleasure": 3616,
      "een": 3617,
      "hated": 3618,
      "nat": 3619,
      "moore": 3620,
      "anywhere": 3621,
      "incident": 3622,
      "techni": 3623,
      "fro": 3624,
      "kins": 3625,
      "thous": 3626,
      "fold": 3627,
      "nia": 3628,
      "thousand": 3629,
      "pin": 3630,
      "vast": 3631,
      "shel": 3632,
      "cuts": 3633,
      "discovered": 3634,
      "uk": 3635,
      "awkward": 3636,
      "eddie": 3637,
      "leon": 3638,
      "gues": 3639,
      "stephen": 3640,
      "captured": 3641,
      "howard": 3642,
      "current": 3643,
      "treated": 3644,
      "religious": 3645,
      "officer": 3646,
      "fare": 3647,
      "knowledge": 3648,
      "buster": 3649,
      "cali": 3650,
      "sympathetic": 3651,
      "appropriate": 3652,
      "chi": 3653,
      "sucks": 3654,
      "phy": 3655,
      "insane": 3656,
      "motiv": 3657,
      "learned": 3658,
      "pacing": 3659,
      "technical": 3660,
      "dut": 3661,
      "scared": 3662,
      "soap": 3663,
      "blon": 3664,
      "invent": 3665,
      "lone": 3666,
      "resear": 3667,
      "desperate": 3668,
      "academy": 3669,
      "glass": 3670,
      "atter": 3671,
      "unnecessary": 3672,
      "peace": 3673,
      "complic": 3674,
      "apparent": 3675,
      "lynch": 3676,
      "jew": 3677,
      "brand": 3678,
      "cook": 3679,
      "singer": 3680,
      "engaging": 3681,
      "includes": 3682,
      "capture": 3683,
      "rical": 3684,
      "wid": 3685,
      "resol": 3686,
      "ished": 3687,
      "explanation": 3688,
      "ilo": 3689,
      "pack": 3690,
      "nicely": 3691,
      "according": 3692,
      "oz": 3693,
      "constant": 3694,
      "criminal": 3695,
      "normally": 3696,
      "proceed": 3697,
      "burn": 3698,
      "fles": 3699,
      "broken": 3700,
      "prepa": 3701,
      "corn": 3702,
      "driving": 3703,
      "freak": 3704,
      "contrast": 3705,
      "ax": 3706,
      "alan": 3707,
      "ander": 3708,
      "mature": 3709,
      "robin": 3710,
      "spectacular": 3711,
      "bian": 3712,
      "hart": 3713,
      "lucky": 3714,
      "drag": 3715,
      "references": 3716,
      "hic": 3717,
      "vamp": 3718,
      "zan": 3719,
      "aa": 3720,
      "cant": 3721,
      "ores": 3722,
      "saur": 3723,
      "keeping": 3724,
      "mare": 3725,
      "uts": 3726,
      "connection": 3727,
      "signific": 3728,
      "magnificent": 3729,
      "vul": 3730,
      "regre": 3731,
      "minim": 3732,
      "humanity": 3733,
      "guns": 3734,
      "smile": 3735,
      "forts": 3736,
      "cia": 3737,
      "frame": 3738,
      "stret": 3739,
      "locations": 3740,
      "months": 3741,
      "report": 3742,
      "admi": 3743,
      "did": 3744,
      "memories": 3745,
      "originally": 3746,
      "pilot": 3747,
      "bound": 3748,
      "pic": 3749,
      "debut": 3750,
      "suck": 3751,
      "forces": 3752,
      "humans": 3753,
      "stream": 3754,
      "winning": 3755,
      "community": 3756,
      "cel": 3757,
      "pir": 3758,
      "ato": 3759,
      "manage": 3760,
      "starting": 3761,
      "court": 3762,
      "nomin": 3763,
      "ators": 3764,
      "pol": 3765,
      "desire": 3766,
      "cars": 3767,
      "foreign": 3768,
      "chief": 3769,
      "players": 3770,
      "monsters": 3771,
      "lacking": 3772,
      "jenni": 3773,
      "cit": 3774,
      "apes": 3775,
      "pretent": 3776,
      "assist": 3777,
      "fate": 3778,
      "tay": 3779,
      "yer": 3780,
      "anci": 3781,
      "lovers": 3782,
      "player": 3783,
      "weight": 3784,
      "opposite": 3785,
      "11": 3786,
      "cil": 3787,
      "jam": 3788,
      "edited": 3789,
      "beach": 3790,
      "wayne": 3791,
      "price": 3792,
      "acqu": 3793,
      "fif": 3794,
      "davis": 3795,
      "relev": 3796,
      "vote": 3797,
      "gard": 3798,
      "deals": 3799,
      "mann": 3800,
      "saving": 3801,
      "bbish": 3802,
      "freed": 3803,
      "gentle": 3804,
      "behavior": 3805,
      "jennifer": 3806,
      "itor": 3807,
      "advert": 3808,
      "joan": 3809,
      "fault": 3810,
      "growing": 3811,
      "mixed": 3812,
      "associ": 3813,
      "angle": 3814,
      "bbing": 3815,
      "techno": 3816,
      "frequ": 3817,
      "pretentious": 3818,
      "ried": 3819,
      "inted": 3820,
      "spin": 3821,
      "nur": 3822,
      "guest": 3823,
      "generation": 3824,
      "floor": 3825,
      "ified": 3826,
      "protect": 3827,
      "finest": 3828,
      "anthony": 3829,
      "gam": 3830,
      "tight": 3831,
      "castle": 3832,
      "bigger": 3833,
      "jay": 3834,
      "england": 3835,
      "media": 3836,
      "jump": 3837,
      "isters": 3838,
      "auth": 3839,
      "included": 3840,
      "instance": 3841,
      "protagonist": 3842,
      "glor": 3843,
      "slea": 3844,
      "sean": 3845,
      "rober": 3846,
      "witty": 3847,
      "hits": 3848,
      "rout": 3849,
      "atro": 3850,
      "ett": 3851,
      "guil": 3852,
      "homo": 3853,
      "perspect": 3854,
      "humorous": 3855,
      "trek": 3856,
      "virgin": 3857,
      "veter": 3858,
      "occasionally": 3859,
      "eric": 3860,
      "enever": 3861,
      "reflect": 3862,
      "naturally": 3863,
      "andrew": 3864,
      "essentially": 3865,
      "nis": 3866,
      "lake": 3867,
      "whenever": 3868,
      "herent": 3869,
      "buddy": 3870,
      "nation": 3871,
      "vehic": 3872,
      "assin": 3873,
      "murdered": 3874,
      "werew": 3875,
      "revolution": 3876,
      "ivity": 3877,
      "organ": 3878,
      "abandon": 3879,
      "saved": 3880,
      "international": 3881,
      "intellect": 3882,
      "princi": 3883,
      "atory": 3884,
      "jose": 3885,
      "alleng": 3886,
      "efforts": 3887,
      "barry": 3888,
      "formed": 3889,
      "bodies": 3890,
      "ipul": 3891,
      "morning": 3892,
      "convin": 3893,
      "louis": 3894,
      "european": 3895,
      "uma": 3896,
      "encounter": 3897,
      "thy": 3898,
      "itions": 3899,
      "charis": 3900,
      "pulled": 3901,
      "passed": 3902,
      "elli": 3903,
      "ries": 3904,
      "heroine": 3905,
      "hunter": 3906,
      "survive": 3907,
      "satisfying": 3908,
      "mitch": 3909,
      "emer": 3910,
      "spoof": 3911,
      "explic": 3912,
      "dealing": 3913,
      "taylor": 3914,
      "preh": 3915,
      "matic": 3916,
      "numerous": 3917,
      "crappy": 3918,
      "revealed": 3919,
      "lif": 3920,
      "itous": 3921,
      "advice": 3922,
      "courage": 3923,
      "toward": 3924,
      "ura": 3925,
      "envi": 3926,
      "thern": 3927,
      "wea": 3928,
      "study": 3929,
      "streets": 3930,
      "urban": 3931,
      "featuring": 3932,
      "rant": 3933,
      "pot": 3934,
      "hack": 3935,
      "empty": 3936,
      "paper": 3937,
      "marry": 3938,
      "france": 3939,
      "villains": 3940,
      "hopes": 3941,
      "dino": 3942,
      "cable": 3943,
      "ella": 3944,
      "ignor": 3945,
      "commercial": 3946,
      "irritating": 3947,
      "send": 3948,
      "invi": 3949,
      "challeng": 3950,
      "corrupt": 3951,
      "meanwhile": 3952,
      "manipul": 3953,
      "agers": 3954,
      "sentiment": 3955,
      "sheer": 3956,
      "wound": 3957,
      "reaction": 3958,
      "union": 3959,
      "feet": 3960,
      "safe": 3961,
      "plaus": 3962,
      "wealth": 3963,
      "donald": 3964,
      "texas": 3965,
      "flesh": 3966,
      "gil": 3967,
      "wat": 3968,
      "lesson": 3969,
      "private": 3970,
      "context": 3971,
      "ultimate": 3972,
      "stereotypes": 3973,
      "rings": 3974,
      "shallow": 3975,
      "twenty": 3976,
      "plo": 3977,
      "rival": 3978,
      "united": 3979,
      "terribly": 3980,
      "neighbor": 3981,
      "alice": 3982,
      "thod": 3983,
      "unfunny": 3984,
      "opens": 3985,
      "chore": 3986,
      "remembered": 3987,
      "levels": 3988,
      "promise": 3989,
      "bun": 3990,
      "abeth": 3991,
      "blah": 3992,
      "psychological": 3993,
      "drunk": 3994,
      "ole": 3995,
      "chest": 3996,
      "kinda": 3997,
      "frankly": 3998,
      "satur": 3999,
      "agre": 4000,
      "marvel": 4001,
      "fix": 4002,
      "mont": 4003,
      "promising": 4004,
      "concerned": 4005,
      "sharp": 4006,
      "chaplin": 4007,
      "vest": 4008,
      "rise": 4009,
      "quir": 4010,
      "heck": 4011,
      "chair": 4012,
      "identity": 4013,
      "individual": 4014,
      "bute": 4015,
      "fame": 4016,
      "keaton": 4017,
      "rubbish": 4018,
      "porter": 4019,
      "distri": 4020,
      "convent": 4021,
      "flashbacks": 4022,
      "ape": 4023,
      "seag": 4024,
      "ambit": 4025,
      "arded": 4026,
      "finale": 4027,
      "philos": 4028,
      "wedding": 4029,
      "rebel": 4030,
      "lied": 4031,
      "received": 4032,
      "rot": 4033,
      "labor": 4034,
      "relate": 4035,
      "bringing": 4036,
      "nonsense": 4037,
      "comparison": 4038,
      "gig": 4039,
      "relig": 4040,
      "compla": 4041,
      "expl": 4042,
      "indic": 4043,
      "grew": 4044,
      "barbara": 4045,
      "cage": 4046,
      "attitude": 4047,
      "higher": 4048,
      "nightmare": 4049,
      "cameo": 4050,
      "julie": 4051,
      "ville": 4052,
      "village": 4053,
      "circum": 4054,
      "comfortable": 4055,
      "dry": 4056,
      "rough": 4057,
      "wolf": 4058,
      "mob": 4059,
      "determin": 4060,
      "shy": 4061,
      "sole": 4062,
      "surreal": 4063,
      "corny": 4064,
      "sheriff": 4065,
      "curious": 4066,
      "anton": 4067,
      "format": 4068,
      "results": 4069,
      "talents": 4070,
      "parody": 4071,
      "washing": 4072,
      "classics": 4073,
      "creates": 4074,
      "miles": 4075,
      "breaks": 4076,
      "football": 4077,
      "research": 4078,
      "kim": 4079,
      "skills": 4080,
      "sisters": 4081,
      "recall": 4082,
      "seat": 4083,
      "asts": 4084,
      "marks": 4085,
      "allows": 4086,
      "lane": 4087,
      "range": 4088,
      "unable": 4089,
      "roman": 4090,
      "satire": 4091,
      "teenagers": 4092,
      "statement": 4093,
      "liber": 4094,
      "complain": 4095,
      "apped": 4096,
      "drin": 4097,
      "larry": 4098,
      "experienced": 4099,
      "visually": 4100,
      "spanish": 4101,
      "roberts": 4102,
      "wre": 4103,
      "wick": 4104,
      "erotic": 4105,
      "discuss": 4106,
      "crowd": 4107,
      "cath": 4108,
      "pity": 4109,
      "aka": 4110,
      "demonstr": 4111,
      "jess": 4112,
      "rep": 4113,
      "iled": 4114,
      "entic": 4115,
      "ays": 4116,
      "conce": 4117,
      "forms": 4118,
      "cies": 4119,
      "service": 4120,
      "ruth": 4121,
      "capable": 4122,
      "hitler": 4123,
      "symbo": 4124,
      "genuinely": 4125,
      "assume": 4126,
      "evidence": 4127,
      "provided": 4128,
      "candy": 4129,
      "decade": 4130,
      "shir": 4131,
      "scenar": 4132,
      "sons": 4133,
      "miser": 4134,
      "visuals": 4135,
      "australian": 4136,
      "ado": 4137,
      "goof": 4138,
      "views": 4139,
      "reviewers": 4140,
      "traditional": 4141,
      "multi": 4142,
      "lewis": 4143,
      "rip": 4144,
      "pred": 4145,
      "center": 4146,
      "produce": 4147,
      "described": 4148,
      "delightful": 4149,
      "fl": 4150,
      "famil": 4151,
      "crash": 4152,
      "failure": 4153,
      "target": 4154,
      "freedom": 4155,
      "environ": 4156,
      "seagal": 4157,
      "80s": 4158,
      "dal": 4159,
      "glen": 4160,
      "tiny": 4161,
      "sucked": 4162,
      "handsome": 4163,
      "hunt": 4164,
      "relief": 4165,
      "jimmy": 4166,
      "contrived": 4167,
      "junk": 4168,
      "secur": 4169,
      "scious": 4170,
      "asian": 4171,
      "screaming": 4172,
      "propag": 4173,
      "douglas": 4174,
      "jesus": 4175,
      "nn": 4176,
      "qual": 4177,
      "assassin": 4178,
      "tedly": 4179,
      "decision": 4180,
      "contempor": 4181,
      "athan": 4182,
      "gain": 4183,
      "logic": 4184,
      "jackie": 4185,
      "hopefully": 4186,
      "continues": 4187,
      "rovers": 4188,
      "unfold": 4189,
      "cash": 4190,
      "ladies": 4191,
      "gangster": 4192,
      "disgusting": 4193,
      "dreadful": 4194,
      "mend": 4195,
      "rules": 4196,
      "devi": 4197,
      "asking": 4198,
      "sav": 4199,
      "rous": 4200,
      "wan": 4201,
      "xious": 4202,
      "cultur": 4203,
      "circumst": 4204,
      "built": 4205,
      "underrated": 4206,
      "creatures": 4207,
      "reviewer": 4208,
      "driver": 4209,
      "document": 4210,
      "appealing": 4211,
      "amateur": 4212,
      "discovers": 4213,
      "jung": 4214,
      "kath": 4215,
      "wing": 4216,
      "sedu": 4217,
      "gging": 4218,
      "silver": 4219,
      "stated": 4220,
      "serve": 4221,
      "wrest": 4222,
      "controvers": 4223,
      "involves": 4224,
      "covered": 4225,
      "connect": 4226,
      "rescue": 4227,
      "ender": 4228,
      "caused": 4229,
      "sake": 4230,
      "fab": 4231,
      "kong": 4232,
      "cares": 4233,
      "talks": 4234,
      "types": 4235,
      "combination": 4236,
      "universal": 4237,
      "evol": 4238,
      "hoff": 4239,
      "simon": 4240,
      "believes": 4241,
      "walks": 4242,
      "switch": 4243,
      "blown": 4244,
      "tour": 4245,
      "enemy": 4246,
      "endless": 4247,
      "constru": 4248,
      "plant": 4249,
      "phant": 4250,
      "trade": 4251,
      "choose": 4252,
      "facts": 4253,
      "hes": 4254,
      "loses": 4255,
      "gift": 4256,
      "myth": 4257,
      "hallow": 4258,
      "patrick": 4259,
      "expression": 4260,
      "existence": 4261,
      "compar": 4262,
      "inder": 4263,
      "interpre": 4264,
      "teenager": 4265,
      "competent": 4266,
      "pon": 4267,
      "rum": 4268,
      "text": 4269,
      "von": 4270,
      "pregn": 4271,
      "aliens": 4272,
      "grown": 4273,
      "perspective": 4274,
      "eer": 4275,
      "angers": 4276,
      "truck": 4277,
      "monkey": 4278,
      "eliz": 4279,
      "unrealistic": 4280,
      "viewed": 4281,
      "bbc": 4282,
      "brave": 4283,
      "meeting": 4284,
      "religion": 4285,
      "glim": 4286,
      "mask": 4287,
      "dubbed": 4288,
      "surface": 4289,
      "strongly": 4290,
      "ee": 4291,
      "irish": 4292,
      "soph": 4293,
      "losing": 4294,
      "prost": 4295,
      "angles": 4296,
      "compan": 4297,
      "maintain": 4298,
      "necessarily": 4299,
      "theaters": 4300,
      "ancient": 4301,
      "shut": 4302,
      "elled": 4303,
      "grave": 4304,
      "versions": 4305,
      "excited": 4306,
      "involve": 4307,
      "eating": 4308,
      "ini": 4309,
      "raw": 4310,
      "network": 4311,
      "cus": 4312,
      "ime": 4313,
      "account": 4314,
      "executed": 4315,
      "gratu": 4316,
      "vampires": 4317,
      "kir": 4318,
      "wag": 4319,
      "depi": 4320,
      "uring": 4321,
      "forth": 4322,
      "bag": 4323,
      "prior": 4324,
      "lesbian": 4325,
      "overly": 4326,
      "blonde": 4327,
      "dogs": 4328,
      "understood": 4329,
      "treatment": 4330,
      "claims": 4331,
      "emotionally": 4332,
      "prince": 4333,
      "haunting": 4334,
      "amateu": 4335,
      "puppet": 4336,
      "halloween": 4337,
      "aud": 4338,
      "lousy": 4339,
      "skill": 4340,
      "guard": 4341,
      "poses": 4342,
      "gress": 4343,
      "nevertheless": 4344,
      "colour": 4345,
      "related": 4346,
      "delivered": 4347,
      "twisted": 4348,
      "families": 4349,
      "sid": 4350,
      "ching": 4351,
      "sexuality": 4352,
      "dollars": 4353,
      "alle": 4354,
      "guar": 4355,
      "evening": 4356,
      "steals": 4357,
      "tedious": 4358,
      "daniel": 4359,
      "theatrical": 4360,
      "embarrassing": 4361,
      "elizabeth": 4362,
      "rat": 4363,
      "root": 4364,
      "plans": 4365,
      "health": 4366,
      "thoughts": 4367,
      "brilliantly": 4368,
      "robot": 4369,
      "massa": 4370,
      "adventures": 4371,
      "suffering": 4372,
      "horribly": 4373,
      "shall": 4374,
      "caine": 4375,
      "teens": 4376,
      "refresh": 4377,
      "hearing": 4378,
      "sports": 4379,
      "citiz": 4380,
      "turkey": 4381,
      "crack": 4382,
      "voices": 4383,
      "morgan": 4384,
      "stopped": 4385,
      "figured": 4386,
      "majority": 4387,
      "disp": 4388,
      "compreh": 4389,
      "poster": 4390,
      "inevi": 4391,
      "walked": 4392,
      "source": 4393,
      "amateurish": 4394,
      "revel": 4395,
      "anal": 4396,
      "atra": 4397,
      "sinc": 4398,
      "colum": 4399,
      "germany": 4400,
      "portraying": 4401,
      "rental": 4402,
      "vague": 4403,
      "expert": 4404,
      "bin": 4405,
      "iac": 4406,
      "sides": 4407,
      "ico": 4408,
      "carp": 4409,
      "league": 4410,
      "letter": 4411,
      "harsh": 4412,
      "patient": 4413,
      "philip": 4414,
      "descript": 4415,
      "relevant": 4416,
      "propaganda": 4417,
      "cure": 4418,
      "coach": 4419,
      "proud": 4420,
      "awards": 4421,
      "portrays": 4422,
      "critical": 4423,
      "hyster": 4424,
      "recognize": 4425,
      "authentic": 4426,
      "pian": 4427,
      "arms": 4428,
      "faithful": 4429,
      "fet": 4430,
      "nar": 4431,
      "print": 4432,
      "subtitles": 4433,
      "porno": 4434,
      "shocked": 4435,
      "dennis": 4436,
      "visible": 4437,
      "holding": 4438,
      "costs": 4439,
      "benef": 4440,
      "gordon": 4441,
      "vinc": 4442,
      "eral": 4443,
      "section": 4444,
      "craw": 4445,
      "committed": 4446,
      "depressing": 4447,
      "segment": 4448,
      "werewolf": 4449,
      "fy": 4450,
      "fon": 4451,
      "jar": 4452,
      "sma": 4453,
      "incess": 4454,
      "entertained": 4455,
      "strip": 4456,
      "melodrama": 4457,
      "virtually": 4458,
      "stol": 4459,
      "beast": 4460,
      "anderson": 4461,
      "whel": 4462,
      "knight": 4463,
      "directly": 4464,
      "factor": 4465,
      "walker": 4466,
      "confess": 4467,
      "annoy": 4468,
      "wilson": 4469,
      "structure": 4470,
      "gratuitous": 4471,
      "gate": 4472,
      "gross": 4473,
      "yl": 4474,
      "conscious": 4475,
      "michel": 4476,
      "doom": 4477,
      "killers": 4478,
      "transl": 4479,
      "insult": 4480,
      "relatively": 4481,
      "slapstick": 4482,
      "dinosaur": 4483,
      "security": 4484,
      "akes": 4485,
      "inept": 4486,
      "offensive": 4487,
      "pursu": 4488,
      "learns": 4489,
      "kate": 4490,
      "tz": 4491,
      "dean": 4492,
      "scale": 4493,
      "emph": 4494,
      "usive": 4495,
      "performed": 4496,
      "clue": 4497,
      "routine": 4498,
      "wins": 4499,
      "donna": 4500,
      "matters": 4501,
      "granted": 4502,
      "enthus": 4503,
      "stab": 4504,
      "shine": 4505,
      "borrow": 4506,
      "experiences": 4507,
      "saturday": 4508,
      "washington": 4509,
      "multiple": 4510,
      "70s": 4511,
      "fed": 4512,
      "hil": 4513,
      "sl": 4514,
      "sacri": 4515,
      "coherent": 4516,
      "hole": 4517,
      "sequels": 4518,
      "imaginative": 4519,
      "guilty": 4520,
      "enthusi": 4521,
      "reput": 4522,
      "leep": 4523,
      "convey": 4524,
      "anged": 4525,
      "highlight": 4526,
      "murphy": 4527,
      "ibility": 4528,
      "eness": 4529,
      "enstein": 4530,
      "albert": 4531,
      "preach": 4532,
      "trap": 4533,
      "misc": 4534,
      "harris": 4535,
      "adding": 4536,
      "swim": 4537,
      "movement": 4538,
      "largely": 4539,
      "toler": 4540,
      "convince": 4541,
      "qualities": 4542,
      "25": 4543,
      "alco": 4544,
      "arrest": 4545,
      "inte": 4546,
      "spends": 4547,
      "plains": 4548,
      "chosen": 4549,
      "sitcom": 4550,
      "jewish": 4551,
      "darkness": 4552,
      "hanging": 4553,
      "zard": 4554,
      "outing": 4555,
      "dude": 4556,
      "makeup": 4557,
      "ideal": 4558,
      "cartoons": 4559,
      "professor": 4560,
      "idiot": 4561,
      "technology": 4562,
      "prostit": 4563,
      "asleep": 4564,
      "noon": 4565,
      "rell": 4566,
      "legal": 4567,
      "heavi": 4568,
      "veteran": 4569,
      "vehicle": 4570,
      "joseph": 4571,
      "1st": 4572,
      "thers": 4573,
      "rod": 4574,
      "neck": 4575,
      "ption": 4576,
      "ruined": 4577,
      "voc": 4578,
      "winner": 4579,
      "suffers": 4580,
      "sab": 4581,
      "tie": 4582,
      "dem": 4583,
      "carol": 4584,
      "chain": 4585,
      "painfully": 4586,
      "weeks": 4587,
      "captures": 4588,
      "prepared": 4589,
      "plausible": 4590,
      "math": 4591,
      "lace": 4592,
      "spring": 4593,
      "method": 4594,
      "serves": 4595,
      "served": 4596,
      "practically": 4597,
      "variety": 4598,
      "contemporary": 4599,
      "kore": 4600,
      "will": 4601,
      "wher": 4602,
      "atherine": 4603,
      "parker": 4604,
      "bitter": 4605,
      "focused": 4606,
      "communic": 4607,
      "depicted": 4608,
      "conversation": 4609,
      "circumstances": 4610,
      "integr": 4611,
      "ium": 4612,
      "tan": 4613,
      "thro": 4614,
      "profound": 4615,
      "latest": 4616,
      "previously": 4617,
      "lest": 4618,
      "nau": 4619,
      "till": 4620,
      "edward": 4621,
      "oky": 4622,
      "cooper": 4623,
      "farm": 4624,
      "pati": 4625,
      "collect": 4626,
      "extras": 4627,
      "russell": 4628,
      "substance": 4629,
      "holmes": 4630,
      "studios": 4631,
      "loyal": 4632,
      "false": 4633,
      "olic": 4634,
      "anc": 4635,
      "scent": 4636,
      "forest": 4637,
      "fornia": 4638,
      "unfortunate": 4639,
      "costume": 4640,
      "aur": 4641,
      "ology": 4642,
      "susan": 4643,
      "ops": 4644,
      "ques": 4645,
      "resist": 4646,
      "chose": 4647,
      "cula": 4648,
      "favorites": 4649,
      "massive": 4650,
      "initial": 4651,
      "welcome": 4652,
      "bone": 4653,
      "haw": 4654,
      "remini": 4655,
      "rix": 4656,
      "cyn": 4657,
      "supernatural": 4658,
      "etime": 4659,
      "passing": 4660,
      "accidentally": 4661,
      "department": 4662,
      "wwi": 4663,
      "sem": 4664,
      "ware": 4665,
      "mates": 4666,
      "amazingly": 4667,
      "thankfully": 4668,
      "influence": 4669,
      "intentionally": 4670,
      "emphas": 4671,
      "ez": 4672,
      "sop": 4673,
      "outra": 4674,
      "iser": 4675,
      "believed": 4676,
      "rolling": 4677,
      "suspic": 4678,
      "cases": 4679,
      "speaks": 4680,
      "regret": 4681,
      "ada": 4682,
      "fee": 4683,
      "calling": 4684,
      "deadly": 4685,
      "vietnam": 4686,
      "abandoned": 4687,
      "sword": 4688,
      "abuse": 4689,
      "enda": 4690,
      "balls": 4691,
      "sympathy": 4692,
      "nominated": 4693,
      "ji": 4694,
      "holi": 4695,
      "rights": 4696,
      "exploitation": 4697,
      "tarzan": 4698,
      "training": 4699,
      "bothered": 4700,
      "continuity": 4701,
      "vacation": 4702,
      "tting": 4703,
      "excit": 4704,
      "walter": 4705,
      "sorts": 4706,
      "satan": 4707,
      "touches": 4708,
      "haunted": 4709,
      "employ": 4710,
      "mickey": 4711,
      "brooks": 4712,
      "ike": 4713,
      "kur": 4714,
      "vable": 4715,
      "deb": 4716,
      "trilo": 4717,
      "trapped": 4718,
      "rule": 4719,
      "landsc": 4720,
      "steps": 4721,
      "fictional": 4722,
      "julia": 4723,
      "legendary": 4724,
      "flight": 4725,
      "edy": 4726,
      "sham": 4727,
      "realizes": 4728,
      "betray": 4729,
      "friday": 4730,
      "handled": 4731,
      "suspenseful": 4732,
      "sne": 4733,
      "display": 4734,
      "jeal": 4735,
      "colon": 4736,
      "hammer": 4737,
      "canadian": 4738,
      "jungle": 4739,
      "outrage": 4740,
      "degree": 4741,
      "roger": 4742,
      "prime": 4743,
      "crying": 4744,
      "regarding": 4745,
      "eastwood": 4746,
      "category": 4747,
      "wand": 4748,
      "brick": 4749,
      "whoever": 4750,
      "helen": 4751,
      "capti": 4752,
      "tons": 4753,
      "carpenter": 4754,
      "bull": 4755,
      "worry": 4756,
      "there": 4757,
      "lower": 4758,
      "accu": 4759,
      "warri": 4760,
      "changing": 4761,
      "metal": 4762,
      "obsessed": 4763,
      "cous": 4764,
      "scr": 4765,
      "naive": 4766,
      "appearing": 4767,
      "drew": 4768,
      "dynam": 4769,
      "politics": 4770,
      "extraordinary": 4771,
      "weapons": 4772,
      "00": 4773,
      "14": 4774,
      "onic": 4775,
      "goth": 4776,
      "firm": 4777,
      "worthwhile": 4778,
      "schem": 4779,
      "featured": 4780,
      "ec": 4781,
      "eri": 4782,
      "chron": 4783,
      "exagger": 4784,
      "dracula": 4785,
      "ludic": 4786,
      "popul": 4787,
      "unlikely": 4788,
      "destroyed": 4789,
      "trilogy": 4790,
      "dow": 4791,
      "increas": 4792,
      "seasons": 4793,
      "african": 4794,
      "remotely": 4795,
      "habit": 4796,
      "hong": 4797,
      "mous": 4798,
      "alright": 4799,
      "greater": 4800,
      "designed": 4801,
      "incid": 4802,
      "mainstream": 4803,
      "universe": 4804,
      "establish": 4805,
      "excitement": 4806,
      "china": 4807,
      "alling": 4808,
      "minds": 4809,
      "closer": 4810,
      "southern": 4811,
      "broadway": 4812,
      "required": 4813,
      "stereotypical": 4814,
      "africa": 4815,
      "chor": 4816,
      "poign": 4817,
      "opt": 4818,
      "isol": 4819,
      "forgot": 4820,
      "nostal": 4821,
      "function": 4822,
      "weekend": 4823,
      "sarah": 4824,
      "stolen": 4825,
      "kiss": 4826,
      "luke": 4827,
      "touched": 4828,
      "demons": 4829,
      "nurse": 4830,
      "lifetime": 4831,
      "asu": 4832,
      "hh": 4833,
      "mort": 4834,
      "oce": 4835,
      "improve": 4836,
      "mented": 4837,
      "height": 4838,
      "udes": 4839,
      "fortune": 4840,
      "renting": 4841,
      "tremend": 4842,
      "convinced": 4843,
      "occasional": 4844,
      "praise": 4845,
      "distribut": 4846,
      "flor": 4847,
      "gm": 4848,
      "itz": 4849,
      "omen": 4850,
      "mud": 4851,
      "meat": 4852,
      "welles": 4853,
      "aust": 4854,
      "warned": 4855,
      "colors": 4856,
      "cutting": 4857,
      "westerns": 4858,
      "kane": 4859,
      "ensu": 4860,
      "champ": 4861,
      "usa": 4862,
      "everywhere": 4863,
      "gritty": 4864,
      "paying": 4865,
      "execution": 4866,
      "storm": 4867,
      "nut": 4868,
      "pitch": 4869,
      "lisa": 4870,
      "raised": 4871,
      "boo": 4872,
      "mono": 4873,
      "sinatra": 4874,
      "nibal": 4875,
      "anime": 4876,
      "summary": 4877,
      "wilder": 4878,
      "clark": 4879,
      "mexican": 4880,
      "mun": 4881,
      "inn": 4882,
      "ara": 4883,
      "tear": 4884,
      "ruin": 4885,
      "pile": 4886,
      "cring": 4887,
      "driven": 4888,
      "swear": 4889,
      "strict": 4890,
      "mistakes": 4891,
      "campy": 4892,
      "lawyer": 4893,
      "funnier": 4894,
      "frightening": 4895,
      "neat": 4896,
      "pert": 4897,
      "philli": 4898,
      "gia": 4899,
      "buying": 4900,
      "excess": 4901,
      "clichéd": 4902,
      "accents": 4903,
      "refreshing": 4904,
      "bber": 4905,
      "bott": 4906,
      "cence": 4907,
      "pes": 4908,
      "instru": 4909,
      "teeth": 4910,
      "magical": 4911,
      "jail": 4912,
      "narration": 4913,
      "paced": 4914,
      "complicated": 4915,
      "hoffman": 4916,
      "16": 4917,
      "mst": 4918,
      "ust": 4919,
      "lia": 4920,
      "divor": 4921,
      "inson": 4922,
      "laura": 4923,
      "effectively": 4924,
      "deaths": 4925,
      "throws": 4926,
      "pulls": 4927,
      "arrives": 4928,
      "boun": 4929,
      "stum": 4930,
      "shaw": 4931,
      "bore": 4932,
      "seek": 4933,
      "spell": 4934,
      "cole": 4935,
      "hired": 4936,
      "underground": 4937,
      "dragon": 4938,
      "curse": 4939,
      "particip": 4940,
      "destru": 4941,
      "franch": 4942,
      "status": 4943,
      "cann": 4944,
      "krist": 4945,
      "redu": 4946,
      "sounded": 4947,
      "claimed": 4948,
      "tradition": 4949,
      "oliver": 4950,
      "wers": 4951,
      "inner": 4952,
      "ential": 4953,
      "exer": 4954,
      "obsc": 4955,
      "kinds": 4956,
      "sensitive": 4957,
      "quirky": 4958,
      "heavily": 4959,
      "zing": 4960,
      "addict": 4961,
      "explains": 4962,
      "cave": 4963,
      "spy": 4964,
      "gray": 4965,
      "notor": 4966,
      "closing": 4967,
      "pses": 4968,
      "hopeless": 4969,
      "zil": 4970,
      "uted": 4971,
      "therland": 4972,
      "grues": 4973,
      "mond": 4974,
      "surprises": 4975,
      "listening": 4976,
      "essential": 4977,
      "stair": 4978,
      "concent": 4979,
      "spite": 4980,
      "choices": 4981,
      "superman": 4982,
      "productions": 4983,
      "amazed": 4984,
      "figures": 4985,
      "treasure": 4986,
      "contribut": 4987,
      "criticism": 4988,
      "interviews": 4989,
      "california": 4990,
      "lloy": 4991,
      "sno": 4992,
      "betty": 4993,
      "aken": 4994,
      "imagery": 4995,
      "distinct": 4996,
      "reveals": 4997,
      "torn": 4998,
      "kat": 4999,
      "tree": 5000,
      "join": 5001,
      "noxious": 5002,
      "princess": 5003,
      "dozen": 5004,
      "tales": 5005,
      "overwhel": 5006,
      "cheer": 5007,
      "creation": 5008,
      "daily": 5009,
      "throwing": 5010,
      "weapon": 5011,
      "hem": 5012,
      "nol": 5013,
      "rela": 5014,
      "reporter": 5015,
      "maid": 5016,
      "code": 5017,
      "subsequ": 5018,
      "johnson": 5019,
      "deeper": 5020,
      "reputation": 5021,
      "task": 5022,
      "repet": 5023,
      "chased": 5024,
      "bern": 5025,
      "acy": 5026,
      "obnoxious": 5027,
      "corpor": 5028,
      "swed": 5029,
      "appreciated": 5030,
      "santa": 5031,
      "struggling": 5032,
      "combined": 5033,
      "desperately": 5034,
      "technically": 5035,
      "mildly": 5036,
      "atrocious": 5037,
      "scenario": 5038,
      "depiction": 5039,
      "gruesome": 5040,
      "brun": 5041,
      "aded": 5042,
      "bog": 5043,
      "intens": 5044,
      "stranger": 5045,
      "pier": 5046,
      "originality": 5047,
      "severe": 5048,
      "crude": 5049,
      "racism": 5050,
      "minimal": 5051,
      "explor": 5052,
      "vance": 5053,
      "stylish": 5054,
      "examples": 5055,
      "1980": 5056,
      "voted": 5057,
      "initially": 5058,
      "sophistic": 5059,
      "ctic": 5060,
      "demo": 5061,
      "facial": 5062,
      "magaz": 5063,
      "spoken": 5064,
      "decades": 5065,
      "murderer": 5066,
      "india": 5067,
      "stayed": 5068,
      "explos": 5069,
      "oooo": 5070,
      "stunt": 5071,
      "purely": 5072,
      "intellectual": 5073,
      "controversial": 5074,
      "mgm": 5075,
      "wes": 5076,
      "bron": 5077,
      "tha": 5078,
      "uninteresting": 5079,
      "phen": 5080,
      "internet": 5081,
      "paralle": 5082,
      "blat": 5083,
      "contest": 5084,
      "harm": 5085,
      "racist": 5086,
      "determined": 5087,
      "fabulous": 5088,
      "massacre": 5089,
      "bart": 5090,
      "pion": 5091,
      "ww": 5092,
      "atically": 5093,
      "gol": 5094,
      "oking": 5095,
      "charge": 5096,
      "warner": 5097,
      "woody": 5098,
      "nonetheless": 5099,
      "adapt": 5100,
      "widow": 5101,
      "ske": 5102,
      "incor": 5103,
      "capital": 5104,
      "condition": 5105,
      "downright": 5106,
      "accepted": 5107,
      "ashamed": 5108,
      "mirror": 5109,
      "succeeds": 5110,
      "elder": 5111,
      "rie": 5112,
      "pool": 5113,
      "istan": 5114,
      "carl": 5115,
      "screening": 5116,
      "shorts": 5117,
      "puzz": 5118,
      "sunday": 5119,
      "journal": 5120,
      "lonely": 5121,
      "environment": 5122,
      "vincent": 5123,
      "tab": 5124,
      "timing": 5125,
      "ups": 5126,
      "handle": 5127,
      "patri": 5128,
      "dinner": 5129,
      "2001": 5130,
      "reference": 5131,
      "ignore": 5132,
      "reminiscent": 5133,
      "hence": 5134,
      "khan": 5135,
      "reject": 5136,
      "dece": 5137,
      "device": 5138,
      "macy": 5139,
      "abil": 5140,
      "tast": 5141,
      "pau": 5142,
      "medical": 5143,
      "fourth": 5144,
      "focuses": 5145,
      "bollywood": 5146,
      "miller": 5147,
      "lloyd": 5148,
      "unconvincing": 5149,
      "diam": 5150,
      "coast": 5151,
      "warn": 5152,
      "folk": 5153,
      "drives": 5154,
      "learning": 5155,
      "stays": 5156,
      "delivery": 5157,
      "offered": 5158,
      "inspiration": 5159,
      "blockbuster": 5160,
      "description": 5161,
      "ocean": 5162,
      "yu": 5163,
      "indie": 5164,
      "burton": 5165,
      "occup": 5166,
      "amongst": 5167,
      "nude": 5168,
      "karen": 5169,
      "sleeping": 5170,
      "significant": 5171,
      "17": 5172,
      "atives": 5173,
      "amy": 5174,
      "artists": 5175,
      "awa": 5176,
      "cheese": 5177,
      "nery": 5178,
      "brazil": 5179,
      "nazi": 5180,
      "wwii": 5181,
      "egg": 5182,
      "tap": 5183,
      "edly": 5184,
      "thumb": 5185,
      "chy": 5186,
      "eves": 5187,
      "term": 5188,
      "feed": 5189,
      "consp": 5190,
      "sold": 5191,
      "guide": 5192,
      "ume": 5193,
      "border": 5194,
      "jobs": 5195,
      "struck": 5196,
      "afternoon": 5197,
      "letting": 5198,
      "ludicrous": 5199,
      "bay": 5200,
      "hint": 5201,
      "ppet": 5202,
      "yle": 5203,
      "ene": 5204,
      "oul": 5205,
      "beloved": 5206,
      "conven": 5207,
      "marily": 5208,
      "toy": 5209,
      "attempting": 5210,
      "exceptional": 5211,
      "picks": 5212,
      "concert": 5213,
      "respon": 5214,
      "carried": 5215,
      "rhy": 5216,
      "intr": 5217,
      "1950": 5218,
      "reads": 5219,
      "enjoying": 5220,
      "introduction": 5221,
      "official": 5222,
      "consistent": 5223,
      "bourne": 5224,
      "michelle": 5225,
      "captiv": 5226,
      "fond": 5227,
      "chill": 5228,
      "ida": 5229,
      "proof": 5230,
      "balance": 5231,
      "wears": 5232,
      "retarded": 5233,
      "goofy": 5234,
      "aire": 5235,
      "bird": 5236,
      "dent": 5237,
      "hud": 5238,
      "ases": 5239,
      "tax": 5240,
      "prov": 5241,
      "ote": 5242,
      "caring": 5243,
      "notable": 5244,
      "halfway": 5245,
      "scares": 5246,
      "strangely": 5247,
      "expressions": 5248,
      "properly": 5249,
      "cultural": 5250,
      "tam": 5251,
      "advi": 5252,
      "comical": 5253,
      "everyday": 5254,
      "contact": 5255,
      "motor": 5256,
      "breathtaking": 5257,
      "dise": 5258,
      "sutherland": 5259,
      "anti": 5260,
      "soviet": 5261,
      "hugh": 5262,
      "drink": 5263,
      "specific": 5264,
      "ski": 5265,
      "helping": 5266,
      "deliber": 5267,
      "stoo": 5268,
      "disagree": 5269,
      "baseball": 5270,
      "pregnant": 5271,
      "ration": 5272,
      "reward": 5273,
      "iles": 5274,
      "entry": 5275,
      "masters": 5276,
      "ament": 5277,
      "causes": 5278,
      "mentally": 5279,
      "extent": 5280,
      "theory": 5281,
      "settings": 5282,
      "1970": 5283,
      "flynn": 5284,
      "dedic": 5285,
      "aunt": 5286,
      "fbi": 5287,
      "rou": 5288,
      "lection": 5289,
      "rab": 5290,
      "muppet": 5291,
      "storytelling": 5292,
      "bach": 5293,
      "answers": 5294,
      "bush": 5295,
      "sinister": 5296,
      "fairy": 5297,
      "carries": 5298,
      "ironic": 5299,
      "sie": 5300,
      "confront": 5301,
      "ishing": 5302,
      "holly": 5303,
      "fallen": 5304,
      "transfer": 5305,
      "grim": 5306,
      "blair": 5307,
      "sleazy": 5308,
      "kis": 5309,
      "anced": 5310,
      "argent": 5311,
      "thunder": 5312,
      "ita": 5313,
      "mail": 5314,
      "greatly": 5315,
      "dare": 5316,
      "cameron": 5317,
      "metap": 5318,
      "stomach": 5319,
      "rome": 5320,
      "chester": 5321,
      "omy": 5322,
      "adays": 5323,
      "disbelief": 5324,
      "titled": 5325,
      "kenned": 5326,
      "clint": 5327,
      "atmospher": 5328,
      "repeat": 5329,
      "achieve": 5330,
      "chasing": 5331,
      "hors": 5332,
      "intim": 5333,
      "rew": 5334,
      "brow": 5335,
      "poet": 5336,
      "aby": 5337,
      "prevent": 5338,
      "lands": 5339,
      "italy": 5340,
      "conventional": 5341,
      "drinking": 5342,
      "gather": 5343,
      "jaw": 5344,
      "attr": 5345,
      "eston": 5346,
      "bare": 5347,
      "honor": 5348,
      "nowadays": 5349,
      "greek": 5350,
      "advantage": 5351,
      "separate": 5352,
      "assistant": 5353,
      "guarante": 5354,
      "replaced": 5355,
      "beit": 5356,
      "cise": 5357,
      "aston": 5358,
      "appy": 5359,
      "announ": 5360,
      "successfully": 5361,
      "madness": 5362,
      "gul": 5363,
      "iat": 5364,
      "aki": 5365,
      "dave": 5366,
      "appearances": 5367,
      "striking": 5368,
      "novels": 5369,
      "freddy": 5370,
      "nancy": 5371,
      "albeit": 5372,
      "chic": 5373,
      "risk": 5374,
      "abor": 5375,
      "geon": 5376,
      "web": 5377,
      "happiness": 5378,
      "ception": 5379,
      "drum": 5380,
      "osity": 5381,
      "nuclear": 5382,
      "innocence": 5383,
      "flawed": 5384,
      "bergman": 5385,
      "bridge": 5386,
      "wyck": 5387,
      "mexico": 5388,
      "interpretation": 5389,
      "catherine": 5390,
      "zel": 5391,
      "basis": 5392,
      "stupidity": 5393,
      "tommy": 5394,
      "penn": 5395,
      "stanwyck": 5396,
      "frequently": 5397,
      "catholic": 5398,
      "notorious": 5399,
      "abilities": 5400,
      "vs": 5401,
      "libr": 5402,
      "maria": 5403,
      "trium": 5404,
      "bugs": 5405,
      "factory": 5406,
      "comedian": 5407,
      "ggy": 5408,
      "riding": 5409,
      "stops": 5410,
      "searching": 5411,
      "criminals": 5412,
      "snakes": 5413,
      "wealthy": 5414,
      "kennedy": 5415,
      "cass": 5416,
      "egy": 5417,
      "tense": 5418,
      "itar": 5419,
      "assa": 5420,
      "screenwriter": 5421,
      "battles": 5422,
      "equal": 5423,
      "revolves": 5424,
      "kicks": 5425,
      "inspiring": 5426,
      "jessica": 5427,
      "3k": 5428,
      "gie": 5429,
      "kung": 5430,
      "ox": 5431,
      "ami": 5432,
      "posing": 5433,
      "gren": 5434,
      "friendly": 5435,
      "voy": 5436,
      "opened": 5437,
      "ratings": 5438,
      "attacks": 5439,
      "griff": 5440,
      "regardless": 5441,
      "whereas": 5442,
      "intensity": 5443,
      "kh": 5444,
      "pig": 5445,
      "sally": 5446,
      "tat": 5447,
      "ert": 5448,
      "arnold": 5449,
      "diss": 5450,
      "lab": 5451,
      "raise": 5452,
      "contr": 5453,
      "pled": 5454,
      "gio": 5455,
      "plastic": 5456,
      "starred": 5457,
      "grey": 5458,
      "burt": 5459,
      "anticip": 5460,
      "gripping": 5461,
      "scratch": 5462,
      "av": 5463,
      "chip": 5464,
      "dev": 5465,
      "pray": 5466,
      "access": 5467,
      "fighter": 5468,
      "upset": 5469,
      "scripts": 5470,
      "graphics": 5471,
      "countries": 5472,
      "femin": 5473,
      "stunts": 5474,
      "shift": 5475,
      "horrific": 5476,
      "credible": 5477,
      "matthau": 5478,
      "miscast": 5479,
      "poignant": 5480,
      "relax": 5481,
      "egypt": 5482,
      "eager": 5483,
      "thru": 5484,
      "challen": 5485,
      "vivid": 5486,
      "should": 5487,
      "oked": 5488,
      "bobby": 5489,
      "ships": 5490,
      "scientists": 5491,
      "thousands": 5492,
      "gle": 5493,
      "endear": 5494,
      "ello": 5495,
      "scor": 5496,
      "dislike": 5497,
      "clau": 5498,
      "mindless": 5499,
      "valent": 5500,
      "powell": 5501,
      "guessing": 5502,
      "ghosts": 5503,
      "intentional": 5504,
      "australia": 5505,
      "credibility": 5506,
      "symboli": 5507,
      "cousin": 5508,
      "dod": 5509,
      "nest": 5510,
      "lazy": 5511,
      "isms": 5512,
      "fulci": 5513,
      "inspect": 5514,
      "fia": 5515,
      "clips": 5516,
      "topic": 5517,
      "install": 5518,
      "attacked": 5519,
      "idiotic": 5520,
      "cowboy": 5521,
      "sual": 5522,
      "manager": 5523,
      "ural": 5524,
      "faced": 5525,
      "perfection": 5526,
      "listed": 5527,
      "broke": 5528,
      "millions": 5529,
      "hiding": 5530,
      "carrying": 5531,
      "snake": 5532,
      "thief": 5533,
      "ghters": 5534,
      "seeking": 5535,
      "lessons": 5536,
      "doors": 5537,
      "portra": 5538,
      "compass": 5539,
      "corner": 5540,
      "confusion": 5541,
      "bald": 5542,
      "tender": 5543,
      "tune": 5544,
      "technique": 5545,
      "dur": 5546,
      "enor": 5547,
      "chilling": 5548,
      "aming": 5549,
      "beth": 5550,
      "connery": 5551,
      "navy": 5552,
      "noted": 5553,
      "deni": 5554,
      "fortunately": 5555,
      "presentation": 5556,
      "busy": 5557,
      "physically": 5558,
      "achieved": 5559,
      "sincere": 5560,
      "challenge": 5561,
      "arrog": 5562,
      "ouses": 5563,
      "quali": 5564,
      "rush": 5565,
      "wasting": 5566,
      "cannibal": 5567,
      "robber": 5568,
      "bilities": 5569,
      "jumps": 5570,
      "nose": 5571,
      "resort": 5572,
      "doc": 5573,
      "overcome": 5574,
      "struggles": 5575,
      "immense": 5576,
      "surrounding": 5577,
      "stealing": 5578,
      "spark": 5579,
      "escapes": 5580,
      "finger": 5581,
      "hundreds": 5582,
      "cynical": 5583,
      "mst3k": 5584,
      "ored": 5585,
      "slaughter": 5586,
      "esh": 5587,
      "laur": 5588,
      "opath": 5589,
      "bast": 5590,
      "phra": 5591,
      "lucy": 5592,
      "murray": 5593,
      "addy": 5594,
      "clum": 5595,
      "refuses": 5596,
      "musicals": 5597,
      "freeman": 5598,
      "pitt": 5599,
      "obsession": 5600,
      "vier": 5601,
      "mol": 5602,
      "exor": 5603,
      "hardy": 5604,
      "needless": 5605,
      "jake": 5606,
      "norman": 5607,
      "burns": 5608,
      "innov": 5609,
      "connected": 5610,
      "punish": 5611,
      "gradu": 5612,
      "quote": 5613,
      "jamie": 5614,
      "columbo": 5615,
      "franchise": 5616,
      "aired": 5617,
      "fx": 5618,
      "kud": 5619,
      "oc": 5620,
      "rh": 5621,
      "infer": 5622,
      "restaur": 5623,
      "consists": 5624,
      "cliff": 5625,
      "discus": 5626,
      "suggests": 5627,
      "snip": 5628,
      "disgust": 5629,
      "victoria": 5630,
      "knock": 5631,
      "slop": 5632,
      "sentimental": 5633,
      "clow": 5634,
      "loid": 5635,
      "shines": 5636,
      "exists": 5637,
      "abe": 5638,
      "emily": 5639,
      "promo": 5640,
      "trial": 5641,
      "supp": 5642,
      "useless": 5643,
      "mighty": 5644,
      "hearts": 5645,
      "2005": 5646,
      "birds": 5647,
      "weakness": 5648,
      "bang": 5649,
      "cup": 5650,
      "alleg": 5651,
      "modest": 5652,
      "imit": 5653,
      "territ": 5654,
      "illu": 5655,
      "parent": 5656,
      "midnight": 5657,
      "enchant": 5658,
      "instantly": 5659,
      "fitting": 5660,
      "germans": 5661,
      "spiritual": 5662,
      "attraction": 5663,
      "sends": 5664,
      "tle": 5665,
      "ée": 5666,
      "ads": 5667,
      "kni": 5668,
      "leslie": 5669,
      "screw": 5670,
      "matrix": 5671,
      "notch": 5672,
      "wheel": 5673,
      "adapted": 5674,
      "embarrassed": 5675,
      "techniques": 5676,
      "hatt": 5677,
      "nt": 5678,
      "sque": 5679,
      "alas": 5680,
      "orph": 5681,
      "legs": 5682,
      "limit": 5683,
      "lovable": 5684,
      "elabor": 5685,
      "rachel": 5686,
      "saves": 5687,
      "mechan": 5688,
      "string": 5689,
      "horrend": 5690,
      "foster": 5691,
      "sings": 5692,
      "blank": 5693,
      "nights": 5694,
      "listic": 5695,
      "franco": 5696,
      "suffered": 5697,
      "ninja": 5698,
      "electric": 5699,
      "24": 5700,
      "arab": 5701,
      "etern": 5702,
      "suits": 5703,
      "tag": 5704,
      "phob": 5705,
      "curr": 5706,
      "selling": 5707,
      "daughters": 5708,
      "oddly": 5709,
      "smooth": 5710,
      "protagonists": 5711,
      "andrews": 5712,
      "cis": 5713,
      "oct": 5714,
      "zone": 5715,
      "returning": 5716,
      "opposed": 5717,
      "quis": 5718,
      "aces": 5719,
      "wave": 5720,
      "rooms": 5721,
      "cinematograph": 5722,
      "emplo": 5723,
      "kidnapped": 5724,
      "repeatedly": 5725,
      "atmospheric": 5726,
      "dawn": 5727,
      "pum": 5728,
      "pink": 5729,
      "wra": 5730,
      "prejud": 5731,
      "acing": 5732,
      "happily": 5733,
      "oblig": 5734,
      "blance": 5735,
      "closely": 5736,
      "ralph": 5737,
      "adequ": 5738,
      "reynold": 5739,
      "bearable": 5740,
      "psychiat": 5741,
      "chases": 5742,
      "hr": 5743,
      "mble": 5744,
      "tall": 5745,
      "enters": 5746,
      "diane": 5747,
      "talked": 5748,
      "solve": 5749,
      "rita": 5750,
      "meaningful": 5751,
      "redem": 5752,
      "broadcast": 5753,
      "crafted": 5754,
      "birthday": 5755,
      "cabin": 5756,
      "belongs": 5757,
      "glimpse": 5758,
      "sidney": 5759,
      "hbo": 5760,
      "ners": 5761,
      "tempt": 5762,
      "staff": 5763,
      "robb": 5764,
      "uninspired": 5765,
      "ambig": 5766,
      "burst": 5767,
      "attempted": 5768,
      "shadows": 5769,
      "cardboard": 5770,
      "marvelous": 5771,
      "fically": 5772,
      "cham": 5773,
      "ripped": 5774,
      "ghet": 5775,
      "gosi": 5776,
      "pear": 5777,
      "convict": 5778,
      "iger": 5779,
      "spending": 5780,
      "spiel": 5781,
      "passes": 5782,
      "britain": 5783,
      "blows": 5784,
      "competition": 5785,
      "sandra": 5786,
      "commerci": 5787,
      "established": 5788,
      "mitchell": 5789,
      "savage": 5790,
      "magazine": 5791,
      "orient": 5792,
      "bry": 5793,
      "thick": 5794,
      "raped": 5795,
      "dubbing": 5796,
      "reser": 5797,
      "nightmar": 5798,
      "sket": 5799,
      "curt": 5800,
      "expensive": 5801,
      "shape": 5802,
      "destro": 5803,
      "blade": 5804,
      "boredom": 5805,
      "briefly": 5806,
      "intentions": 5807,
      "performers": 5808,
      "lun": 5809,
      "nine": 5810,
      "oil": 5811,
      "infamous": 5812,
      "invisible": 5813,
      "replace": 5814,
      "ales": 5815,
      "chol": 5816,
      "eva": 5817,
      "gos": 5818,
      "user": 5819,
      "antino": 5820,
      "kings": 5821,
      "pointed": 5822,
      "mira": 5823,
      "counts": 5824,
      "videos": 5825,
      "precious": 5826,
      "profession": 5827,
      "jonathan": 5828,
      "inher": 5829,
      "laid": 5830,
      "irony": 5831,
      "ffy": 5832,
      "angels": 5833,
      "newsp": 5834,
      "tribute": 5835,
      "checking": 5836,
      "leton": 5837,
      "logist": 5838,
      "acceptable": 5839,
      "troubled": 5840,
      "concerns": 5841,
      "revealing": 5842,
      "sophisticated": 5843,
      "knife": 5844,
      "revi": 5845,
      "locked": 5846,
      "owen": 5847,
      "essence": 5848,
      "contract": 5849,
      "guilt": 5850,
      "wax": 5851,
      "alike": 5852,
      "hunting": 5853,
      "stretch": 5854,
      "exercise": 5855,
      "rank": 5856,
      "tip": 5857,
      "stiff": 5858,
      "omit": 5859,
      "uncomfortable": 5860,
      "boot": 5861,
      "lesser": 5862,
      "prise": 5863,
      "pride": 5864,
      "lugosi": 5865,
      "custom": 5866,
      "reasonable": 5867,
      "dialogs": 5868,
      "20th": 5869,
      "develops": 5870,
      "shoots": 5871,
      "jerk": 5872,
      "basement": 5873,
      "thirty": 5874,
      "matthew": 5875,
      "hudson": 5876,
      "reynolds": 5877,
      "shell": 5878,
      "admir": 5879,
      "emma": 5880,
      "beating": 5881,
      "grin": 5882,
      "stress": 5883,
      "parano": 5884,
      "grows": 5885,
      "pacino": 5886,
      "hills": 5887,
      "wreck": 5888,
      "holiday": 5889,
      "accura": 5890,
      "triumph": 5891,
      "ket": 5892,
      "ture": 5893,
      "rever": 5894,
      "bride": 5895,
      "laure": 5896,
      "consequences": 5897,
      "toss": 5898,
      "clim": 5899,
      "colorful": 5900,
      "explicit": 5901,
      "ambitious": 5902,
      "wicked": 5903,
      "unforgettable": 5904,
      "kee": 5905,
      "bold": 5906,
      "importantly": 5907,
      "counters": 5908,
      "travels": 5909,
      "smoke": 5910,
      "revelation": 5911,
      "nd": 5912,
      "phe": 5913,
      "artic": 5914,
      "isra": 5915,
      "rushed": 5916,
      "fianc": 5917,
      "pressed": 5918,
      "relent": 5919,
      "cycle": 5920,
      "identify": 5921,
      "tied": 5922,
      "wishes": 5923,
      "dealt": 5924,
      "1950s": 5925,
      "korean": 5926,
      "destruction": 5927,
      "forgive": 5928,
      "lust": 5929,
      "claire": 5930,
      "illian": 5931,
      "drags": 5932,
      "davi": 5933,
      "engine": 5934,
      "titan": 5935,
      "silence": 5936,
      "easier": 5937,
      "todd": 5938,
      "personalities": 5939,
      "homage": 5940,
      "suspects": 5941,
      "curiosity": 5942,
      "linda": 5943,
      "ignored": 5944,
      "vulner": 5945,
      "kirk": 5946,
      "45": 5947,
      "flam": 5948,
      "gers": 5949,
      "smu": 5950,
      "elle": 5951,
      "admittedly": 5952,
      "tricks": 5953,
      "scarecrow": 5954,
      "leonard": 5955,
      "blast": 5956,
      "tad": 5957,
      "yard": 5958,
      "cake": 5959,
      "gran": 5960,
      "caric": 5961,
      "lacked": 5962,
      "subplot": 5963,
      "haha": 5964,
      "spots": 5965,
      "othy": 5966,
      "bury": 5967,
      "selfish": 5968,
      "butt": 5969,
      "thrilling": 5970,
      "mummy": 5971,
      "inevitable": 5972,
      "annoyed": 5973,
      "outrageous": 5974,
      "yester": 5975,
      "encounters": 5976,
      "ila": 5977,
      "chen": 5978,
      "warming": 5979,
      "dragged": 5980,
      "crimes": 5981,
      "superfic": 5982,
      "hooked": 5983,
      "command": 5984,
      "glory": 5985,
      "bc": 5986,
      "guts": 5987,
      "mouse": 5988,
      "pound": 5989,
      "wart": 5990,
      "outer": 5991,
      "cker": 5992,
      "covers": 5993,
      "toi": 5994,
      "bucks": 5995,
      "wake": 5996,
      "notes": 5997,
      "cameos": 5998,
      "tier": 5999,
      "souls": 6000,
      "accused": 6001,
      "pulling": 6002,
      "rogers": 6003,
      "accompan": 6004,
      "melodramatic": 6005,
      "neighborhood": 6006,
      "champion": 6007,
      "phenomen": 6008,
      "redemption": 6009,
      "spielberg": 6010,
      "nit": 6011,
      "liking": 6012,
      "mode": 6013,
      "shep": 6014,
      "active": 6015,
      "pover": 6016,
      "maniac": 6017,
      "ellar": 6018,
      "coy": 6019,
      "syl": 6020,
      "nichol": 6021,
      "crisis": 6022,
      "headed": 6023,
      "dancer": 6024,
      "burning": 6025,
      "godfather": 6026,
      "button": 6027,
      "2000": 6028,
      "2006": 6029,
      "countless": 6030,
      "dropped": 6031,
      "accomplish": 6032,
      "individuals": 6033,
      "philosoph": 6034,
      "piano": 6035,
      "tremendous": 6036,
      "yel": 6037,
      "infect": 6038,
      "ala": 6039,
      "editor": 6040,
      "omin": 6041,
      "beer": 6042,
      "noble": 6043,
      "afford": 6044,
      "stole": 6045,
      "importance": 6046,
      "judg": 6047,
      "sticks": 6048,
      "affected": 6049,
      "investigation": 6050,
      "dorothy": 6051,
      "providing": 6052,
      "charisma": 6053,
      "inspector": 6054,
      "illustr": 6055,
      "glam": 6056,
      "tin": 6057,
      "ona": 6058,
      "reactions": 6059,
      "rivet": 6060,
      "beings": 6061,
      "neil": 6062,
      "push": 6063,
      "indians": 6064,
      "thrillers": 6065,
      "mistaken": 6066,
      "gothic": 6067,
      "stooges": 6068,
      "portrait": 6069,
      "territory": 6070,
      "bible": 6071,
      "hick": 6072,
      "ov": 6073,
      "seum": 6074,
      "peak": 6075,
      "shower": 6076,
      "packed": 6077,
      "performing": 6078,
      "enjoyment": 6079,
      "highlights": 6080,
      "colla": 6081,
      "breasts": 6082,
      "requires": 6083,
      "kudos": 6084,
      "abru": 6085,
      "cd": 6086,
      "cand": 6087,
      "lol": 6088,
      "raj": 6089,
      "trite": 6090,
      "whol": 6091,
      "appalling": 6092,
      "ensemble": 6093,
      "wonders": 6094,
      "creators": 6095,
      "harri": 6096,
      "eleg": 6097,
      "elev": 6098,
      "elsewhere": 6099,
      "streep": 6100,
      "dramas": 6101,
      "medium": 6102,
      "attracted": 6103,
      "scope": 6104,
      "ironically": 6105,
      "splen": 6106,
      "glenn": 6107,
      "increasingly": 6108,
      "chicago": 6109,
      "exorc": 6110,
      "toilet": 6111,
      "abrupt": 6112,
      "rics": 6113,
      "reed": 6114,
      "chew": 6115,
      "ements": 6116,
      "condu": 6117,
      "geor": 6118,
      "woo": 6119,
      "pho": 6120,
      "horrid": 6121,
      "aky": 6122,
      "carefully": 6123,
      "tourist": 6124,
      "hype": 6125,
      "horses": 6126,
      "econ": 6127,
      "icking": 6128,
      "loser": 6129,
      "rious": 6130,
      "rable": 6131,
      "beats": 6132,
      "quar": 6133,
      "split": 6134,
      "realise": 6135,
      "characterization": 6136,
      "engaged": 6137,
      "cried": 6138,
      "typically": 6139,
      "frankenstein": 6140,
      "discovery": 6141,
      "conspira": 6142,
      "response": 6143,
      "cats": 6144,
      "size": 6145,
      "lifest": 6146,
      "shan": 6147,
      "poison": 6148,
      "watches": 6149,
      "parad": 6150,
      "believably": 6151,
      "handful": 6152,
      "juven": 6153,
      "jeremy": 6154,
      "shark": 6155,
      "salv": 6156,
      "accomplished": 6157,
      "altern": 6158,
      "drunken": 6159,
      "kubrick": 6160,
      "possessed": 6161,
      "demands": 6162,
      "dimens": 6163,
      "fifteen": 6164,
      "eerie": 6165,
      "splendid": 6166,
      "rates": 6167,
      "activi": 6168,
      "launch": 6169,
      "causing": 6170,
      "josh": 6171,
      "noise": 6172,
      "helic": 6173,
      "tracks": 6174,
      "backdrop": 6175,
      "192": 6176,
      "believing": 6177,
      "distant": 6178,
      "clay": 6179,
      "attached": 6180,
      "1970s": 6181,
      "jumping": 6182,
      "miserably": 6183,
      "jealous": 6184,
      "horrendous": 6185,
      "laurel": 6186,
      "helicop": 6187,
      "hl": 6188,
      "iful": 6189,
      "linc": 6190,
      "relu": 6191,
      "dire": 6192,
      "label": 6193,
      "cox": 6194,
      "farce": 6195,
      "spoiled": 6196,
      "allowing": 6197,
      "willis": 6198,
      "cassa": 6199,
      "respond": 6200,
      "iii": 6201,
      "remaining": 6202,
      "surrounded": 6203,
      "documentaries": 6204,
      "reluct": 6205,
      "bble": 6206,
      "ari": 6207,
      "ghan": 6208,
      "marine": 6209,
      "marie": 6210,
      "insist": 6211,
      "attend": 6212,
      "bust": 6213,
      "fancy": 6214,
      "shoes": 6215,
      "cyc": 6216,
      "secrets": 6217,
      "tarantino": 6218,
      "grandfather": 6219,
      "nett": 6220,
      "stanley": 6221,
      "alexander": 6222,
      "admire": 6223,
      "citizen": 6224,
      "restaurant": 6225,
      "cassavet": 6226,
      "dled": 6227,
      "mund": 6228,
      "orchest": 6229,
      "item": 6230,
      "unpleasant": 6231,
      "address": 6232,
      "mansion": 6233,
      "fears": 6234,
      "gee": 6235,
      "baker": 6236,
      "heat": 6237,
      "heim": 6238,
      "mario": 6239,
      "horrors": 6240,
      "iously": 6241,
      "disjo": 6242,
      "carter": 6243,
      "hire": 6244,
      "audio": 6245,
      "wallace": 6246,
      "brilliance": 6247,
      "ridiculously": 6248,
      "fatal": 6249,
      "picking": 6250,
      "associated": 6251,
      "rud": 6252,
      "zu": 6253,
      "bean": 6254,
      "hibit": 6255,
      "worlds": 6256,
      "corpse": 6257,
      "sexually": 6258,
      "presuma": 6259,
      "heroic": 6260,
      "hitting": 6261,
      "clues": 6262,
      "virus": 6263,
      "smoking": 6264,
      "loosely": 6265,
      "photographed": 6266,
      "strictly": 6267,
      "disease": 6268,
      "contrary": 6269,
      "hul": 6270,
      "sse": 6271,
      "represents": 6272,
      "threw": 6273,
      "confron": 6274,
      "antics": 6275,
      "prepar": 6276,
      "bleak": 6277,
      "duke": 6278,
      "interaction": 6279,
      "fired": 6280,
      "centric": 6281,
      "grasp": 6282,
      "portion": 6283,
      "merit": 6284,
      "valu": 6285,
      "superbly": 6286,
      "uniform": 6287,
      "misses": 6288,
      "terrifying": 6289,
      "drops": 6290,
      "prisoners": 6291,
      "franci": 6292,
      "argument": 6293,
      "jewel": 6294,
      "endearing": 6295,
      "commercials": 6296,
      "titanic": 6297,
      "ranks": 6298,
      "tte": 6299,
      "inexplic": 6300,
      "reel": 6301,
      "vich": 6302,
      "racial": 6303,
      "compo": 6304,
      "combat": 6305,
      "abs": 6306,
      "forbid": 6307,
      "coincid": 6308,
      "agan": 6309,
      "directorial": 6310,
      "persona": 6311,
      "worthless": 6312,
      "shortly": 6313,
      "hoped": 6314,
      "builds": 6315,
      "fields": 6316,
      "beaten": 6317,
      "immig": 6318,
      "occurs": 6319,
      "nazis": 6320,
      "predator": 6321,
      "subsequent": 6322,
      "elderly": 6323,
      "disjointed": 6324,
      "presumably": 6325,
      "bless": 6326,
      "drow": 6327,
      "urist": 6328,
      "album": 6329,
      "chil": 6330,
      "lawr": 6331,
      "terior": 6332,
      "absor": 6333,
      "oln": 6334,
      "tack": 6335,
      "perpet": 6336,
      "marga": 6337,
      "resur": 6338,
      "wondered": 6339,
      "jazz": 6340,
      "wallow": 6341,
      "offended": 6342,
      "morality": 6343,
      "messages": 6344,
      "possibility": 6345,
      "pulp": 6346,
      "pleasantly": 6347,
      "2nd": 6348,
      "ril": 6349,
      "inser": 6350,
      "alt": 6351,
      "altogether": 6352,
      "lis": 6353,
      "devast": 6354,
      "madonna": 6355,
      "roe": 6356,
      "rocks": 6357,
      "goal": 6358,
      "usions": 6359,
      "neth": 6360,
      "holy": 6361,
      "miy": 6362,
      "ireland": 6363,
      "spooky": 6364,
      "larger": 6365,
      "stronger": 6366,
      "strikes": 6367,
      "precise": 6368,
      "prompt": 6369,
      "instinct": 6370,
      "satisfied": 6371,
      "punk": 6372,
      "luckily": 6373,
      "frustrated": 6374,
      "segments": 6375,
      "bruno": 6376,
      "fath": 6377,
      "gut": 6378,
      "pap": 6379,
      "tank": 6380,
      "wright": 6381,
      "staged": 6382,
      "mock": 6383,
      "unintentionally": 6384,
      "adri": 6385,
      "anyways": 6386,
      "dust": 6387,
      "duck": 6388,
      "killings": 6389,
      "mons": 6390,
      "scripted": 6391,
      "breed": 6392,
      "burg": 6393,
      "airport": 6394,
      "detailed": 6395,
      "concerning": 6396,
      "angela": 6397,
      "angeles": 6398,
      "resembles": 6399,
      "austen": 6400,
      "thumbs": 6401,
      "library": 6402,
      "lincoln": 6403,
      "lawrence": 6404,
      "elo": 6405,
      "oke": 6406,
      "wig": 6407,
      "incoherent": 6408,
      "ont": 6409,
      "ingen": 6410,
      "chances": 6411,
      "sail": 6412,
      "heist": 6413,
      "ensible": 6414,
      "primarily": 6415,
      "displays": 6416,
      "restra": 6417,
      "annie": 6418,
      "bile": 6419,
      "hyp": 6420,
      "thrills": 6421,
      "draws": 6422,
      "receive": 6423,
      "evident": 6424,
      "further": 6425,
      "charismatic": 6426,
      "currently": 6427,
      "afore": 6428,
      "ique": 6429,
      "nod": 6430,
      "inju": 6431,
      "stir": 6432,
      "atl": 6433,
      "oma": 6434,
      "spare": 6435,
      "craig": 6436,
      "areas": 6437,
      "styles": 6438,
      "hamlet": 6439,
      "oscars": 6440,
      "carrie": 6441,
      "tortured": 6442,
      "walls": 6443,
      "fingers": 6444,
      "digital": 6445,
      "glasses": 6446,
      "fonda": 6447,
      "dinosaurs": 6448,
      "dic": 6449,
      "hmm": 6450,
      "randy": 6451,
      "supre": 6452,
      "asm": 6453,
      "empath": 6454,
      "fac": 6455,
      "gian": 6456,
      "mile": 6457,
      "webs": 6458,
      "observ": 6459,
      "link": 6460,
      "hopper": 6461,
      "politic": 6462,
      "mistress": 6463,
      "insulting": 6464,
      "nelson": 6465,
      "duty": 6466,
      "resolution": 6467,
      "discussion": 6468,
      "involvement": 6469,
      "griffith": 6470,
      "yesterday": 6471,
      "60s": 6472,
      "cig": 6473,
      "fay": 6474,
      "returned": 6475,
      "armed": 6476,
      "eval": 6477,
      "diction": 6478,
      "imperson": 6479,
      "goo": 6480,
      "laud": 6481,
      "beck": 6482,
      "worried": 6483,
      "timeless": 6484,
      "boom": 6485,
      "udge": 6486,
      "partly": 6487,
      "dub": 6488,
      "resour": 6489,
      "carrey": 6490,
      "autom": 6491,
      "reasonably": 6492,
      "passeng": 6493,
      "instit": 6494,
      "anagh": 6495,
      "blues": 6496,
      "squad": 6497,
      "university": 6498,
      "complaint": 6499,
      "hysterical": 6500,
      "cinder": 6501,
      "mour": 6502,
      "wann": 6503,
      "advance": 6504,
      "goodness": 6505,
      "pleased": 6506,
      "with": 6507,
      "funeral": 6508,
      "gial": 6509,
      "jection": 6510,
      "outcome": 6511,
      "dialogues": 6512,
      "generous": 6513,
      "calm": 6514,
      "hypo": 6515,
      "2004": 6516,
      "archite": 6517,
      "subjects": 6518,
      "signs": 6519,
      "tunes": 6520,
      "motivation": 6521,
      "benefit": 6522,
      "colonel": 6523,
      "exaggerated": 6524,
      "compassion": 6525,
      "elic": 6526,
      "kitch": 6527,
      "zes": 6528,
      "orders": 6529,
      "liar": 6530,
      "buried": 6531,
      "meaningless": 6532,
      "kov": 6533,
      "nicole": 6534,
      "idiots": 6535,
      "arrested": 6536,
      "explosions": 6537,
      "architect": 6538,
      "esis": 6539,
      "amanda": 6540,
      "ulate": 6541,
      "inters": 6542,
      "writes": 6543,
      "chaos": 6544,
      "daring": 6545,
      "coura": 6546,
      "secondly": 6547,
      "strike": 6548,
      "photo": 6549,
      "1990": 6550,
      "survival": 6551,
      "officers": 6552,
      "cellu": 6553,
      "achievement": 6554,
      "aimed": 6555,
      "splatter": 6556,
      "swedish": 6557,
      "aforementioned": 6558,
      "bli": 6559,
      "wet": 6560,
      "err": 6561,
      "encoura": 6562,
      "diet": 6563,
      "cof": 6564,
      "harder": 6565,
      "menacing": 6566,
      "planning": 6567,
      "frankie": 6568,
      "sentence": 6569,
      "royal": 6570,
      "flawless": 6571,
      "loaded": 6572,
      "choreograph": 6573,
      "constructed": 6574,
      "warrior": 6575,
      "obscure": 6576,
      "newspaper": 6577,
      "bent": 6578,
      "lund": 6579,
      "pants": 6580,
      "leo": 6581,
      "sevent": 6582,
      "adams": 6583,
      "improved": 6584,
      "implausible": 6585,
      "cared": 6586,
      "museum": 6587,
      "luci": 6588,
      "fisher": 6589,
      "pushed": 6590,
      "nearby": 6591,
      "bene": 6592,
      "politically": 6593,
      "judging": 6594,
      "doll": 6595,
      "rendition": 6596,
      "defend": 6597,
      "acknow": 6598,
      "hatred": 6599,
      "waters": 6600,
      "landscape": 6601,
      "clown": 6602,
      "cinderella": 6603,
      "celluloid": 6604,
      "aven": 6605,
      "gad": 6606,
      "winter": 6607,
      "ingu": 6608,
      "estic": 6609,
      "emper": 6610,
      "ophy": 6611,
      "conserv": 6612,
      "wore": 6613,
      "apping": 6614,
      "tooth": 6615,
      "bug": 6616,
      "extended": 6617,
      "huh": 6618,
      "valley": 6619,
      "clothing": 6620,
      "twin": 6621,
      "distance": 6622,
      "distingu": 6623,
      "staying": 6624,
      "cruise": 6625,
      "promised": 6626,
      "equip": 6627,
      "narrator": 6628,
      "traveling": 6629,
      "gradually": 6630,
      "intrigued": 6631,
      "eccentric": 6632,
      "cringe": 6633,
      "repetitive": 6634,
      "poverty": 6635,
      "cards": 6636,
      "dud": 6637,
      "jet": 6638,
      "pam": 6639,
      "argue": 6640,
      "branagh": 6641,
      "select": 6642,
      "demi": 6643,
      "devoid": 6644,
      "robe": 6645,
      "urbed": 6646,
      "trend": 6647,
      "duo": 6648,
      "march": 6649,
      "overlooked": 6650,
      "screams": 6651,
      "wash": 6652,
      "buddies": 6653,
      "disturbed": 6654,
      "gnity": 6655,
      "1980s": 6656,
      "secretary": 6657,
      "offering": 6658,
      "rapid": 6659,
      "painting": 6660,
      "canada": 6661,
      "lifting": 6662,
      "cusack": 6663,
      "superficial": 6664,
      "furthermore": 6665,
      "sod": 6666,
      "wine": 6667,
      "thi": 6668,
      "lix": 6669,
      "vity": 6670,
      "omic": 6671,
      "undoub": 6672,
      "dian": 6673,
      "manhatt": 6674,
      "empire": 6675,
      "consu": 6676,
      "protest": 6677,
      "forgiven": 6678,
      "tted": 6679,
      "gram": 6680,
      "martha": 6681,
      "hardcore": 6682,
      "walken": 6683,
      "greg": 6684,
      "sadistic": 6685,
      "blake": 6686,
      "slightest": 6687,
      "grandmother": 6688,
      "sales": 6689,
      "arrive": 6690,
      "affection": 6691,
      "shirt": 6692,
      "wrestling": 6693,
      "companion": 6694,
      "doomed": 6695,
      "throat": 6696,
      "dating": 6697,
      "gid": 6698,
      "aling": 6699,
      "alfred": 6700,
      "lips": 6701,
      "isand": 6702,
      "anded": 6703,
      "cag": 6704,
      "tribe": 6705,
      "stark": 6706,
      "owned": 6707,
      "notably": 6708,
      "movements": 6709,
      "promin": 6710,
      "mixture": 6711,
      "subtlety": 6712,
      "loads": 6713,
      "escaped": 6714,
      "prostitute": 6715,
      "sneak": 6716,
      "juvenile": 6717,
      "margaret": 6718,
      "jury": 6719,
      "vine": 6720,
      "errors": 6721,
      "esth": 6722,
      "lyrics": 6723,
      "visc": 6724,
      "adul": 6725,
      "oding": 6726,
      "conve": 6727,
      "guin": 6728,
      "measure": 6729,
      "lucas": 6730,
      "upper": 6731,
      "blur": 6732,
      "blend": 6733,
      "compli": 6734,
      "gerald": 6735,
      "flies": 6736,
      "oses": 6737,
      "generic": 6738,
      "burned": 6739,
      "streisand": 6740,
      "airplane": 6741,
      "groups": 6742,
      "explore": 6743,
      "pays": 6744,
      "delivering": 6745,
      "recognized": 6746,
      "terrorist": 6747,
      "psychotic": 6748,
      "investigate": 6749,
      "conversations": 6750,
      "stairs": 6751,
      "abysm": 6752,
      "beneath": 6753,
      "aar": 6754,
      "bam": 6755,
      "arist": 6756,
      "composed": 6757,
      "util": 6758,
      "tracy": 6759,
      "bette": 6760,
      "plague": 6761,
      "trio": 6762,
      "thoughtful": 6763,
      "brains": 6764,
      "opinions": 6765,
      "1999": 6766,
      "1960": 6767,
      "afterwards": 6768,
      "threatening": 6769,
      "ification": 6770,
      "symbolism": 6771,
      "elaborate": 6772,
      "conspiracy": 6773,
      "ego": 6774,
      "fist": 6775,
      "glow": 6776,
      "hanks": 6777,
      "kish": 6778,
      "sadd": 6779,
      "aly": 6780,
      "devoted": 6781,
      "scul": 6782,
      "bears": 6783,
      "isation": 6784,
      "tea": 6785,
      "finan": 6786,
      "jaco": 6787,
      "tones": 6788,
      "humili": 6789,
      "explored": 6790,
      "treats": 6791,
      "radi": 6792,
      "relies": 6793,
      "introduces": 6794,
      "fantas": 6795,
      "projects": 6796,
      "stereotype": 6797,
      "slick": 6798,
      "continued": 6799,
      "uristic": 6800,
      "manhattan": 6801,
      "cagney": 6802,
      "bates": 6803,
      "kay": 6804,
      "lers": 6805,
      "rural": 6806,
      "ilted": 6807,
      "shay": 6808,
      "unk": 6809,
      "pretend": 6810,
      "phony": 6811,
      "overdone": 6812,
      "claude": 6813,
      "custer": 6814,
      "classical": 6815,
      "sadness": 6816,
      "settling": 6817,
      "homeless": 6818,
      "reached": 6819,
      "panic": 6820,
      "decisions": 6821,
      "principal": 6822,
      "ruthless": 6823,
      "yellow": 6824,
      "billi": 6825,
      "inhabit": 6826,
      "shining": 6827,
      "dignity": 6828,
      "scot": 6829,
      "derek": 6830,
      "predec": 6831,
      "wells": 6832,
      "rubber": 6833,
      "veness": 6834,
      "differences": 6835,
      "convol": 6836,
      "butch": 6837,
      "swing": 6838,
      "bullets": 6839,
      "elimin": 6840,
      "require": 6841,
      "stinker": 6842,
      "garden": 6843,
      "liberal": 6844,
      "assault": 6845,
      "enormous": 6846,
      "clumsy": 6847,
      "cassavetes": 6848,
      "emperor": 6849,
      "daw": 6850,
      "jol": 6851,
      "vous": 6852,
      "zzy": 6853,
      "leck": 6854,
      "defe": 6855,
      "keith": 6856,
      "exotic": 6857,
      "conc": 6858,
      "musc": 6859,
      "agents": 6860,
      "strang": 6861,
      "genres": 6862,
      "producing": 6863,
      "highest": 6864,
      "collabor": 6865,
      "damage": 6866,
      "closed": 6867,
      "darker": 6868,
      "imagined": 6869,
      "hamil": 6870,
      "similarly": 6871,
      "campbell": 6872,
      "explaining": 6873,
      "prisoner": 6874,
      "describes": 6875,
      "depression": 6876,
      "brando": 6877,
      "reduced": 6878,
      "coffee": 6879,
      "cities": 6880,
      "houses": 6881,
      "juni": 6882,
      "sive": 6883,
      "brig": 6884,
      "illegal": 6885,
      "lifel": 6886,
      "ading": 6887,
      "rail": 6888,
      "comics": 6889,
      "cket": 6890,
      "asion": 6891,
      "terry": 6892,
      "preview": 6893,
      "trained": 6894,
      "incar": 6895,
      "persu": 6896,
      "handed": 6897,
      "jordan": 6898,
      "legit": 6899,
      "rocket": 6900,
      "explosion": 6901,
      "trees": 6902,
      "temple": 6903,
      "transport": 6904,
      "ticket": 6905,
      "proceedings": 6906,
      "solely": 6907,
      "kurt": 6908,
      "sloppy": 6909,
      "kitchen": 6910,
      "predecess": 6911,
      "fever": 6912,
      "hag": 6913,
      "kel": 6914,
      "lang": 6915,
      "tame": 6916,
      "upt": 6917,
      "zor": 6918,
      "enem": 6919,
      "unbelievably": 6920,
      "adol": 6921,
      "exposed": 6922,
      "indul": 6923,
      "istically": 6924,
      "strangers": 6925,
      "interrupt": 6926,
      "tool": 6927,
      "ruins": 6928,
      "montage": 6929,
      "graphy": 6930,
      "aneously": 6931,
      "closet": 6932,
      "specifically": 6933,
      "caly": 6934,
      "credited": 6935,
      "instant": 6936,
      "convincingly": 6937,
      "bullet": 6938,
      "nico": 6939,
      "recognition": 6940,
      "scientific": 6941,
      "executive": 6942,
      "recorded": 6943,
      "frustrating": 6944,
      "translation": 6945,
      "captivating": 6946,
      "gom": 6947,
      "pper": 6948,
      "rec": 6949,
      "filling": 6950,
      "unwatchable": 6951,
      "scores": 6952,
      "poon": 6953,
      "worn": 6954,
      "casual": 6955,
      "characteristic": 6956,
      "boris": 6957,
      "kidding": 6958,
      "lined": 6959,
      "hollow": 6960,
      "garfield": 6961,
      "patter": 6962,
      "patric": 6963,
      "apocaly": 6964,
      "construction": 6965,
      "population": 6966,
      "curtis": 6967,
      "junior": 6968,
      "enemies": 6969,
      "mcc": 6970,
      "wend": 6971,
      "recru": 6972,
      "reunion": 6973,
      "thu": 6974,
      "sect": 6975,
      "unit": 6976,
      "iran": 6977,
      "isab": 6978,
      "solo": 6979,
      "excru": 6980,
      "wont": 6981,
      "gere": 6982,
      "smaller": 6983,
      "murderous": 6984,
      "popcorn": 6985,
      "sweep": 6986,
      "crystal": 6987,
      "francis": 6988,
      "intrigue": 6989,
      "square": 6990,
      "occurred": 6991,
      "photographer": 6992,
      "homosexual": 6993,
      "analy": 6994,
      "sacrific": 6995,
      "dynamic": 6996,
      "metaphor": 6997,
      "installment": 6998,
      "lifestyle": 6999,
      "fty": 7000,
      "hates": 7001,
      "mul": 7002,
      "nas": 7003,
      "rd": 7004,
      "tact": 7005,
      "reck": 7006,
      "ata": 7007,
      "chess": 7008,
      "icy": 7009,
      "iments": 7010,
      "aspir": 7011,
      "holic": 7012,
      "careers": 7013,
      "pushing": 7014,
      "drivel": 7015,
      "focusing": 7016,
      "damme": 7017,
      "gangsters": 7018,
      "justin": 7019,
      "matched": 7020,
      "consistently": 7021,
      "alternative": 7022,
      "distracting": 7023,
      "miserable": 7024,
      "isolated": 7025,
      "robbery": 7026,
      "childish": 7027,
      "35": 7028,
      "cun": 7029,
      "echo": 7030,
      "gand": 7031,
      "hap": 7032,
      "vau": 7033,
      "redi": 7034,
      "ancy": 7035,
      "oms": 7036,
      "artific": 7037,
      "pless": 7038,
      "ciating": 7039,
      "workers": 7040,
      "attle": 7041,
      "defined": 7042,
      "purchase": 7043,
      "2002": 7044,
      "buildings": 7045,
      "potentially": 7046,
      "catches": 7047,
      "depressed": 7048,
      "bathroom": 7049,
      "hideous": 7050,
      "wagon": 7051,
      "dedicated": 7052,
      "argento": 7053,
      "davies": 7054,
      "undoubtedly": 7055,
      "awe": 7056,
      "gus": 7057,
      "gimm": 7058,
      "iently": 7059,
      "ingredi": 7060,
      "icon": 7061,
      "logue": 7062,
      "adop": 7063,
      "etically": 7064,
      "iders": 7065,
      "spa": 7066,
      "ears": 7067,
      "resid": 7068,
      "doz": 7069,
      "norris": 7070,
      "cameras": 7071,
      "sidekick": 7072,
      "countryside": 7073,
      "commented": 7074,
      "suitable": 7075,
      "neglect": 7076,
      "eighties": 7077,
      "divorce": 7078,
      "blatant": 7079,
      "provoking": 7080,
      "phrase": 7081,
      "adequate": 7082,
      "excruciating": 7083,
      "bite": 7084,
      "sant": 7085,
      "anor": 7086,
      "bros": 7087,
      "vian": 7088,
      "elvis": 7089,
      "mactic": 7090,
      "odds": 7091,
      "felix": 7092,
      "astron": 7093,
      "serge": 7094,
      "species": 7095,
      "failing": 7096,
      "crucial": 7097,
      "flop": 7098,
      "communist": 7099,
      "mesmer": 7100,
      "models": 7101,
      "mountains": 7102,
      "incidentally": 7103,
      "scheme": 7104,
      "journalist": 7105,
      "diamond": 7106,
      "arrogant": 7107,
      "convoluted": 7108,
      "kor": 7109,
      "sas": 7110,
      "vors": 7111,
      "xter": 7112,
      "vicious": 7113,
      "rising": 7114,
      "unbearable": 7115,
      "assem": 7116,
      "promot": 7117,
      "inda": 7118,
      "spike": 7119,
      "wives": 7120,
      "astound": 7121,
      "traffic": 7122,
      "grab": 7123,
      "turner": 7124,
      "useful": 7125,
      "tonight": 7126,
      "sheen": 7127,
      "terrorists": 7128,
      "answered": 7129,
      "removed": 7130,
      "comparing": 7131,
      "poetry": 7132,
      "absence": 7133,
      "gimmick": 7134,
      "dozens": 7135,
      "lur": 7136,
      "pies": 7137,
      "ule": 7138,
      "yo": 7139,
      "incompreh": 7140,
      "settle": 7141,
      "itudes": 7142,
      "unoriginal": 7143,
      "ells": 7144,
      "marked": 7145,
      "holo": 7146,
      "nah": 7147,
      "motives": 7148,
      "rolled": 7149,
      "towns": 7150,
      "symbol": 7151,
      "drawing": 7152,
      "existed": 7153,
      "russia": 7154,
      "influenced": 7155,
      "lemmon": 7156,
      "inventive": 7157,
      "choreography": 7158,
      "philosophy": 7159,
      "accompanied": 7160,
      "iveness": 7161,
      "kil": 7162,
      "nun": 7163,
      "snu": 7164,
      "xon": 7165,
      "repul": 7166,
      "tho": 7167,
      "thread": 7168,
      "shr": 7169,
      "ulting": 7170,
      "isa": 7171,
      "anders": 7172,
      "staring": 7173,
      "notion": 7174,
      "licate": 7175,
      "planned": 7176,
      "masterful": 7177,
      "marty": 7178,
      "limits": 7179,
      "survived": 7180,
      "historic": 7181,
      "reaches": 7182,
      "transc": 7183,
      "agrees": 7184,
      "innovative": 7185,
      "cinematographer": 7186,
      "employe": 7187,
      "psychiatrist": 7188,
      "giallo": 7189,
      "cum": 7190,
      "hou": 7191,
      "ological": 7192,
      "patt": 7193,
      "pony": 7194,
      "tires": 7195,
      "inf": 7196,
      "leth": 7197,
      "ctive": 7198,
      "iring": 7199,
      "ellen": 7200,
      "quent": 7201,
      "quinn": 7202,
      "illness": 7203,
      "earned": 7204,
      "aggress": 7205,
      "doct": 7206,
      "versus": 7207,
      "twel": 7208,
      "simplistic": 7209,
      "winds": 7210,
      "bridges": 7211,
      "frequent": 7212,
      "deliberately": 7213,
      "punishment": 7214,
      "altman": 7215,
      "ache": 7216,
      "cot": 7217,
      "imo": 7218,
      "sway": 7219,
      "tiger": 7220,
      "stellar": 7221,
      "vial": 7222,
      "vile": 7223,
      "asia": 7224,
      "abc": 7225,
      "apt": 7226,
      "pros": 7227,
      "enson": 7228,
      "primary": 7229,
      "maged": 7230,
      "subplots": 7231,
      "morris": 7232,
      "copies": 7233,
      "amounts": 7234,
      "passionate": 7235,
      "june": 7236,
      "education": 7237,
      "crawford": 7238,
      "enthusiast": 7239,
      "rabbit": 7240,
      "helicopter": 7241,
      "francisco": 7242,
      "ien": 7243,
      "lins": 7244,
      "rang": 7245,
      "sic": 7246,
      "slu": 7247,
      "static": 7248,
      "seed": 7249,
      "decor": 7250,
      "shor": 7251,
      "mafia": 7252,
      "estate": 7253,
      "plate": 7254,
      "whis": 7255,
      "paci": 7256,
      "despair": 7257,
      "incest": 7258,
      "performer": 7259,
      "steel": 7260,
      "honesty": 7261,
      "troubles": 7262,
      "blowing": 7263,
      "passa": 7264,
      "trailers": 7265,
      "psychopath": 7266,
      "succeeded": 7267,
      "chicken": 7268,
      "bye": 7269,
      "hut": 7270,
      "ibly": 7271,
      "edit": 7272,
      "defeat": 7273,
      "olves": 7274,
      "arty": 7275,
      "quaid": 7276,
      "meg": 7277,
      "serving": 7278,
      "obtain": 7279,
      "relations": 7280,
      "medic": 7281,
      "tongue": 7282,
      "considerable": 7283,
      "developing": 7284,
      "scarlett": 7285,
      "transform": 7286,
      "similarities": 7287,
      "boxing": 7288,
      "justify": 7289,
      "bullock": 7290,
      "horrifying": 7291,
      "bearing": 7292,
      "practice": 7293,
      "depicts": 7294,
      "eaten": 7295,
      "vulgar": 7296,
      "asures": 7297,
      "parallel": 7298,
      "dentist": 7299,
      "pearl": 7300,
      "miyaz": 7301,
      "bie": 7302,
      "kr": 7303,
      "rational": 7304,
      "edition": 7305,
      "ental": 7306,
      "amid": 7307,
      "vegas": 7308,
      "urge": 7309,
      "taught": 7310,
      "troma": 7311,
      "whip": 7312,
      "preced": 7313,
      "saf": 7314,
      "mars": 7315,
      "fried": 7316,
      "sits": 7317,
      "underlying": 7318,
      "classes": 7319,
      "menace": 7320,
      "harold": 7321,
      "harvey": 7322,
      "discon": 7323,
      "sung": 7324,
      "contained": 7325,
      "historically": 7326,
      "agreed": 7327,
      "unfolds": 7328,
      "nightmares": 7329,
      "resurrect": 7330,
      "cs": 7331,
      "ease": 7332,
      "kum": 7333,
      "recover": 7334,
      "lean": 7335,
      "vibr": 7336,
      "uneven": 7337,
      "assum": 7338,
      "aph": 7339,
      "endings": 7340,
      "quit": 7341,
      "directs": 7342,
      "mayor": 7343,
      "izations": 7344,
      "lacklu": 7345,
      "liners": 7346,
      "restri": 7347,
      "gabr": 7348,
      "2007": 7349,
      "hilariously": 7350,
      "floating": 7351,
      "survivors": 7352,
      "commander": 7353,
      "wounded": 7354,
      "overwhelming": 7355,
      "baldwin": 7356,
      "rants": 7357,
      "inane": 7358,
      "encing": 7359,
      "inger": 7360,
      "recyc": 7361,
      "lotte": 7362,
      "bak": 7363,
      "marion": 7364,
      "desired": 7365,
      "izable": 7366,
      "carrad": 7367,
      "cheating": 7368,
      "nicho": 7369,
      "barney": 7370,
      "licity": 7371,
      "teaching": 7372,
      "retro": 7373,
      "melan": 7374,
      "channels": 7375,
      "bonus": 7376,
      "global": 7377,
      "jeffrey": 7378,
      "cannon": 7379,
      "bronson": 7380,
      "dimensional": 7381,
      "abysmal": 7382,
      "99": 7383,
      "ix": 7384,
      "tends": 7385,
      "escent": 7386,
      "unintentional": 7387,
      "imper": 7388,
      "suited": 7389,
      "uled": 7390,
      "exchange": 7391,
      "props": 7392,
      "perry": 7393,
      "spaces": 7394,
      "whit": 7395,
      "grudge": 7396,
      "displayed": 7397,
      "carmen": 7398,
      "1930": 7399,
      "namely": 7400,
      "exploit": 7401,
      "fficient": 7402,
      "futuristic": 7403,
      "laws": 7404,
      "cleverly": 7405,
      "brutally": 7406,
      "defense": 7407,
      "stevens": 7408,
      "conceived": 7409,
      "citizens": 7410,
      "employed": 7411,
      "bernard": 7412,
      "advise": 7413,
      "phobic": 7414,
      "riveting": 7415,
      "hamilton": 7416,
      "cen": 7417,
      "glu": 7418,
      "pson": 7419,
      "ranger": 7420,
      "slum": 7421,
      "republic": 7422,
      "seld": 7423,
      "lime": 7424,
      "poetic": 7425,
      "neu": 7426,
      "plu": 7427,
      "plum": 7428,
      "orted": 7429,
      "worker": 7430,
      "augu": 7431,
      "disappeared": 7432,
      "overrated": 7433,
      "nervous": 7434,
      "myers": 7435,
      "meryl": 7436,
      "engross": 7437,
      "clip": 7438,
      "cliche": 7439,
      "mentioning": 7440,
      "shake": 7441,
      "rocky": 7442,
      "kicked": 7443,
      "recording": 7444,
      "immort": 7445,
      "chapter": 7446,
      "synop": 7447,
      "iraq": 7448,
      "resemblance": 7449,
      "grotes": 7450,
      "wandering": 7451,
      "intimate": 7452,
      "website": 7453,
      "aaron": 7454,
      "financial": 7455,
      "carradine": 7456,
      "auss": 7457,
      "fought": 7458,
      "swallow": 7459,
      "stard": 7460,
      "mothy": 7461,
      "mankind": 7462,
      "optim": 7463,
      "feast": 7464,
      "igner": 7465,
      "seeks": 7466,
      "guided": 7467,
      "guitar": 7468,
      "blew": 7469,
      "simult": 7470,
      "blond": 7471,
      "myst": 7472,
      "clos": 7473,
      "careful": 7474,
      "creativity": 7475,
      "bbie": 7476,
      "2003": 7477,
      "promises": 7478,
      "downhill": 7479,
      "painted": 7480,
      "circus": 7481,
      "temper": 7482,
      "fooled": 7483,
      "jesse": 7484,
      "dutch": 7485,
      "nostalgia": 7486,
      "wrapped": 7487,
      "philosophical": 7488,
      "hypnot": 7489,
      "ota": 7490,
      "sappy": 7491,
      "uff": 7492,
      "react": 7493,
      "ader": 7494,
      "amuse": 7495,
      "idal": 7496,
      "profan": 7497,
      "charlotte": 7498,
      "facing": 7499,
      "strous": 7500,
      "awak": 7501,
      "cream": 7502,
      "runner": 7503,
      "dani": 7504,
      "timothy": 7505,
      "wished": 7506,
      "slave": 7507,
      "1972": 7508,
      "1995": 7509,
      "ifying": 7510,
      "arrived": 7511,
      "eastern": 7512,
      "boll": 7513,
      "witnessed": 7514,
      "frost": 7515,
      "shelf": 7516,
      "glorious": 7517,
      "swimming": 7518,
      "emphasis": 7519,
      "3rd": 7520,
      "honey": 7521,
      "kru": 7522,
      "pg": 7523,
      "iner": 7524,
      "enz": 7525,
      "illogical": 7526,
      "moody": 7527,
      "icing": 7528,
      "ela": 7529,
      "april": 7530,
      "endure": 7531,
      "spider": 7532,
      "mirac": 7533,
      "rude": 7534,
      "waves": 7535,
      "butler": 7536,
      "reflection": 7537,
      "circle": 7538,
      "embarrassment": 7539,
      "campa": 7540,
      "stinks": 7541,
      "pretending": 7542,
      "capturing": 7543,
      "proceeds": 7544,
      "guests": 7545,
      "challenging": 7546,
      "phillip": 7547,
      "accuracy": 7548,
      "valuable": 7549,
      "safety": 7550,
      "synopsis": 7551,
      "aesth": 7552,
      "dil": 7553,
      "fice": 7554,
      "uity": 7555,
      "wrap": 7556,
      "enh": 7557,
      "edgar": 7558,
      "vic": 7559,
      "loff": 7560,
      "roth": 7561,
      "rapt": 7562,
      "pops": 7563,
      "likewise": 7564,
      "boob": 7565,
      "bleed": 7566,
      "weather": 7567,
      "doo": 7568,
      "grass": 7569,
      "understated": 7570,
      "elephant": 7571,
      "cler": 7572,
      "dys": 7573,
      "cancel": 7574,
      "homer": 7575,
      "responsibility": 7576,
      "thompson": 7577,
      "revolutionary": 7578,
      "shirley": 7579,
      "ponder": 7580,
      "borrowed": 7581,
      "prejudice": 7582,
      "nicholson": 7583,
      "elegant": 7584,
      "seventies": 7585,
      "twelve": 7586,
      "closest": 7587,
      "bors": 7588,
      "gall": 7589,
      "retain": 7590,
      "alert": 7591,
      "lip": 7592,
      "detract": 7593,
      "unreal": 7594,
      "pola": 7595,
      "condem": 7596,
      "faster": 7597,
      "realizing": 7598,
      "newman": 7599,
      "laughably": 7600,
      "compelled": 7601,
      "colin": 7602,
      "couples": 7603,
      "clou": 7604,
      "latin": 7605,
      "refu": 7606,
      "operation": 7607,
      "zeal": 7608,
      "1983": 7609,
      "1996": 7610,
      "matches": 7611,
      "vince": 7612,
      "desperation": 7613,
      "enterprise": 7614,
      "falk": 7615,
      "alcoholic": 7616,
      "patients": 7617,
      "incorpor": 7618,
      "quisite": 7619,
      "patricia": 7620,
      "miyazaki": 7621,
      "gel": 7622,
      "kitty": 7623,
      "nuts": 7624,
      "alley": 7625,
      "stilted": 7626,
      "adorable": 7627,
      "sue": 7628,
      "contrad": 7629,
      "guards": 7630,
      "fires": 7631,
      "marshall": 7632,
      "backs": 7633,
      "tyler": 7634,
      "waited": 7635,
      "solution": 7636,
      "dances": 7637,
      "peters": 7638,
      "topless": 7639,
      "logically": 7640,
      "ernest": 7641,
      "crush": 7642,
      "discovering": 7643,
      "introduce": 7644,
      "trashy": 7645,
      "bumbling": 7646,
      "appropriately": 7647,
      "behaviour": 7648,
      "vaguely": 7649,
      "sacrifice": 7650,
      "alcohol": 7651,
      "nostalgic": 7652,
      "florida": 7653,
      "jaws": 7654,
      "immensely": 7655,
      "contradi": 7656,
      "bson": 7657,
      "kit": 7658,
      "til": 7659,
      "exh": 7660,
      "perce": 7661,
      "oker": 7662,
      "fundam": 7663,
      "disappear": 7664,
      "performs": 7665,
      "overacting": 7666,
      "heading": 7667,
      "respected": 7668,
      "possibilities": 7669,
      "suggested": 7670,
      "testament": 7671,
      "1930s": 7672,
      "remarkably": 7673,
      "buffs": 7674,
      "chainsaw": 7675,
      "bottle": 7676,
      "chamber": 7677,
      "wannabe": 7678,
      "bever": 7679,
      "dill": 7680,
      "hatch": 7681,
      "pad": 7682,
      "vell": 7683,
      "wt": 7684,
      "enna": 7685,
      "shod": 7686,
      "aman": 7687,
      "essa": 7688,
      "absent": 7689,
      "quer": 7690,
      "monot": 7691,
      "cheated": 7692,
      "warren": 7693,
      "blunt": 7694,
      "spock": 7695,
      "lical": 7696,
      "understandable": 7697,
      "alongside": 7698,
      "garner": 7699,
      "hung": 7700,
      "hunters": 7701,
      "technic": 7702,
      "spacey": 7703,
      "damned": 7704,
      "sunshine": 7705,
      "equival": 7706,
      "foolish": 7707,
      "arrival": 7708,
      "pitiful": 7709,
      "gloss": 7710,
      "apolo": 7711,
      "frustration": 7712,
      "13th": 7713,
      "gentleman": 7714,
      "ignorant": 7715,
      "hesit": 7716,
      "vulnerable": 7717,
      "cg": 7718,
      "kent": 7719,
      "nem": 7720,
      "ula": 7721,
      "unsettling": 7722,
      "peck": 7723,
      "exceed": 7724,
      "confin": 7725,
      "iding": 7726,
      "quel": 7727,
      "joel": 7728,
      "showcase": 7729,
      "kingdom": 7730,
      "peoples": 7731,
      "applaud": 7732,
      "graham": 7733,
      "wishing": 7734,
      "ysis": 7735,
      "umbles": 7736,
      "ritter": 7737,
      "surviving": 7738,
      "3000": 7739,
      "depicting": 7740,
      "substit": 7741,
      "motivations": 7742,
      "jews": 7743,
      "advertising": 7744,
      "sleaze": 7745,
      "composer": 7746,
      "equipment": 7747,
      "thugs": 7748,
      "seldom": 7749,
      "hench": 7750,
      "rice": 7751,
      "inappropriate": 7752,
      "enlight": 7753,
      "eliness": 7754,
      "riot": 7755,
      "ghou": 7756,
      "polar": 7757,
      "parties": 7758,
      "minister": 7759,
      "anson": 7760,
      "steam": 7761,
      "enjoys": 7762,
      "flir": 7763,
      "guessed": 7764,
      "spirits": 7765,
      "boarding": 7766,
      "regarded": 7767,
      "remained": 7768,
      "formulaic": 7769,
      "watson": 7770,
      "shameless": 7771,
      "inferior": 7772,
      "bones": 7773,
      "eis": 7774,
      "nbc": 7775,
      "pel": 7776,
      "wides": 7777,
      "incompetent": 7778,
      "arian": 7779,
      "orrow": 7780,
      "unfair": 7781,
      "keen": 7782,
      "diana": 7783,
      "conrad": 7784,
      "andra": 7785,
      "joined": 7786,
      "cope": 7787,
      "berry": 7788,
      "berlin": 7789,
      "trains": 7790,
      "hoo": 7791,
      "akshay": 7792,
      "awake": 7793,
      "helpless": 7794,
      "basket": 7795,
      "cron": 7796,
      "twins": 7797,
      "climactic": 7798,
      "whats": 7799,
      "garbo": 7800,
      "avoided": 7801,
      "dresses": 7802,
      "teaches": 7803,
      "senses": 7804,
      "vengeance": 7805,
      "combine": 7806,
      "banned": 7807,
      "1940": 7808,
      "fleet": 7809,
      "arguably": 7810,
      "resolved": 7811,
      "corruption": 7812,
      "patience": 7813,
      "claustro": 7814,
      "aint": 7815,
      "hints": 7816,
      "kas": 7817,
      "oy": 7818,
      "stare": 7819,
      "leigh": 7820,
      "mason": 7821,
      "roof": 7822,
      "ador": 7823,
      "imate": 7824,
      "poke": 7825,
      "opus": 7826,
      "idy": 7827,
      "verted": 7828,
      "faults": 7829,
      "pron": 7830,
      "viewings": 7831,
      "austin": 7832,
      "cheek": 7833,
      "landing": 7834,
      "clock": 7835,
      "gained": 7836,
      "drift": 7837,
      "dylan": 7838,
      "confid": 7839,
      "robots": 7840,
      "transformation": 7841,
      "dramat": 7842,
      "appreciation": 7843,
      "karate": 7844,
      "karloff": 7845,
      "slip": 7846,
      "crossing": 7847,
      "coward": 7848,
      "dimension": 7849,
      "widmark": 7850,
      "minimum": 7851,
      "puppets": 7852,
      "sopran": 7853,
      "glamor": 7854,
      "nathan": 7855,
      "smar": 7856,
      "aled": 7857,
      "stable": 7858,
      "ettes": 7859,
      "oks": 7860,
      "spit": 7861,
      "spain": 7862,
      "coat": 7863,
      "akin": 7864,
      "dose": 7865,
      "lux": 7866,
      "compens": 7867,
      "outfit": 7868,
      "cue": 7869,
      "assign": 7870,
      "spoke": 7871,
      "generations": 7872,
      "hears": 7873,
      "expressed": 7874,
      "dolls": 7875,
      "ethnic": 7876,
      "backgrounds": 7877,
      "recognizable": 7878,
      "machines": 7879,
      "authority": 7880,
      "wisdom": 7881,
      "progresses": 7882,
      "warmth": 7883,
      "demanding": 7884,
      "natal": 7885,
      "virginia": 7886,
      "gifted": 7887,
      "option": 7888,
      "guarantee": 7889,
      "activities": 7890,
      "supreme": 7891,
      "grotesque": 7892,
      "hank": 7893,
      "lately": 7894,
      "mim": 7895,
      "uri": 7896,
      "bris": 7897,
      "shah": 7898,
      "rotten": 7899,
      "rave": 7900,
      "tery": 7901,
      "abo": 7902,
      "taker": 7903,
      "ids": 7904,
      "prot": 7905,
      "illusion": 7906,
      "pric": 7907,
      "trace": 7908,
      "file": 7909,
      "engage": 7910,
      "smiling": 7911,
      "crisp": 7912,
      "visions": 7913,
      "heartbreaking": 7914,
      "tomorrow": 7915,
      "passable": 7916,
      "slash": 7917,
      "dell": 7918,
      "weakest": 7919,
      "euro": 7920,
      "premiere": 7921,
      "catching": 7922,
      "salman": 7923,
      "joey": 7924,
      "reaching": 7925,
      "sandler": 7926,
      "exceptionally": 7927,
      "nomination": 7928,
      "celebrity": 7929,
      "antonio": 7930,
      "inevit": 7931,
      "tiresome": 7932,
      "nicholas": 7933,
      "foul": 7934,
      "mtv": 7935,
      "sni": 7936,
      "wret": 7937,
      "enzo": 7938,
      "oni": 7939,
      "represented": 7940,
      "ilight": 7941,
      "secut": 7942,
      "rio": 7943,
      "pee": 7944,
      "wizard": 7945,
      "lowest": 7946,
      "agon": 7947,
      "nyc": 7948,
      "attitudes": 7949,
      "drake": 7950,
      "persons": 7951,
      "invasion": 7952,
      "lasted": 7953,
      "twilight": 7954,
      "reno": 7955,
      "dancers": 7956,
      "romero": 7957,
      "superhero": 7958,
      "greed": 7959,
      "confident": 7960,
      "domestic": 7961,
      "asylum": 7962,
      "marketing": 7963,
      "loneliness": 7964,
      "representation": 7965,
      "educational": 7966,
      "montgom": 7967,
      "symbolic": 7968,
      "voyage": 7969,
      "forbidden": 7970,
      "artificial": 7971,
      "astronaut": 7972,
      "incomprehensible": 7973,
      "simultaneously": 7974,
      "amo": 7975,
      "awhile": 7976,
      "pid": 7977,
      "ugh": 7978,
      "yelling": 7979,
      "bri": 7980,
      "deaf": 7981,
      "mani": 7982,
      "exquisite": 7983,
      "irrelevant": 7984,
      "bec": 7985,
      "herd": 7986,
      "creen": 7987,
      "sink": 7988,
      "relatives": 7989,
      "assigned": 7990,
      "secondary": 7991,
      "kenneth": 7992,
      "dreary": 7993,
      "purchased": 7994,
      "robinson": 7995,
      "mysteries": 7996,
      "summar": 7997,
      "clueless": 7998,
      "accurately": 7999,
      "glover": 8000,
      "letters": 8001,
      "correctly": 8002,
      "chronic": 8003,
      "gabriel": 8004,
      "campaign": 8005,
      "montgomery": 8006,
      "eats": 8007,
      "hmer": 8008,
      "jr": 8009,
      "mute": 8010,
      "pour": 8011,
      "pino": 8012,
      "uated": 8013,
      "ark": 8014,
      "mod": 8015,
      "scand": 8016,
      "showdown": 8017,
      "grate": 8018,
      "travest": 8019,
      "resulting": 8020,
      "primit": 8021,
      "obli": 8022,
      "pix": 8023,
      "portions": 8024,
      "misery": 8025,
      "niro": 8026,
      "musicians": 8027,
      "generated": 8028,
      "bela": 8029,
      "purple": 8030,
      "pursuit": 8031,
      "gym": 8032,
      "femme": 8033,
      "moreover": 8034,
      "sensational": 8035,
      "sara": 8036,
      "visiting": 8037,
      "wildly": 8038,
      "troops": 8039,
      "demand": 8040,
      "kathy": 8041,
      "integrity": 8042,
      "corporate": 8043,
      "conservative": 8044,
      "ingredients": 8045,
      "dysfunction": 8046,
      "equivalent": 8047,
      "banks": 8048,
      "cens": 8049,
      "daddy": 8050,
      "nations": 8051,
      "nons": 8052,
      "osing": 8053,
      "tens": 8054,
      "eder": 8055,
      "oured": 8056,
      "leans": 8057,
      "maj": 8058,
      "unhappy": 8059,
      "forcing": 8060,
      "deranged": 8061,
      "miike": 8062,
      "uplifting": 8063,
      "craven": 8064,
      "darn": 8065,
      "humble": 8066,
      "blacks": 8067,
      "bands": 8068,
      "biography": 8069,
      "satir": 8070,
      "planes": 8071,
      "ordered": 8072,
      "judy": 8073,
      "sweat": 8074,
      "implic": 8075,
      "flood": 8076,
      "concern": 8077,
      "literature": 8078,
      "render": 8079,
      "julian": 8080,
      "quotes": 8081,
      "invited": 8082,
      "manipulative": 8083,
      "complaining": 8084,
      "analysis": 8085,
      "methods": 8086,
      "suspicious": 8087,
      "rhyth": 8088,
      "priceless": 8089,
      "nonsens": 8090,
      "22": 8091,
      "dame": 8092,
      "lance": 8093,
      "mall": 8094,
      "mber": 8095,
      "pals": 8096,
      "anch": 8097,
      "antagon": 8098,
      "stall": 8099,
      "oman": 8100,
      "det": 8101,
      "mack": 8102,
      "dia": 8103,
      "asing": 8104,
      "andro": 8105,
      "prey": 8106,
      "nove": 8107,
      "firstly": 8108,
      "fier": 8109,
      "columb": 8110,
      "dazz": 8111,
      "holland": 8112,
      "cram": 8113,
      "definition": 8114,
      "sched": 8115,
      "policeman": 8116,
      "1979": 8117,
      "questionable": 8118,
      "kapoor": 8119,
      "hurts": 8120,
      "scottish": 8121,
      "ginger": 8122,
      "behave": 8123,
      "foxx": 8124,
      "lifted": 8125,
      "experimental": 8126,
      "exploration": 8127,
      "exorcist": 8128,
      "mundane": 8129,
      "cunning": 8130,
      "aussie": 8131,
      "kne": 8132,
      "pant": 8133,
      "rr": 8134,
      "ushi": 8135,
      "infin": 8136,
      "revers": 8137,
      "retri": 8138,
      "entit": 8139,
      "amir": 8140,
      "tered": 8141,
      "joins": 8142,
      "spread": 8143,
      "acity": 8144,
      "traum": 8145,
      "reson": 8146,
      "stiller": 8147,
      "checked": 8148,
      "isha": 8149,
      "maggie": 8150,
      "auto": 8151,
      "wacky": 8152,
      "pressure": 8153,
      "walt": 8154,
      "senseless": 8155,
      "creator": 8156,
      "jackass": 8157,
      "biased": 8158,
      "purposes": 8159,
      "bedroom": 8160,
      "samuel": 8161,
      "1971": 8162,
      "sunny": 8163,
      "sixties": 8164,
      "rendered": 8165,
      "jenny": 8166,
      "affairs": 8167,
      "micro": 8168,
      "civilization": 8169,
      "enthusiasm": 8170,
      "doctors": 8171,
      "bio": 8172,
      "heston": 8173,
      "mck": 8174,
      "rer": 8175,
      "wong": 8176,
      "zilla": 8177,
      "inject": 8178,
      "rex": 8179,
      "anity": 8180,
      "chal": 8181,
      "liz": 8182,
      "icidal": 8183,
      "raises": 8184,
      "consequ": 8185,
      "quart": 8186,
      "charged": 8187,
      "intend": 8188,
      "umin": 8189,
      "baff": 8190,
      "acid": 8191,
      "mari": 8192,
      "reader": 8193,
      "trivial": 8194,
      "underworld": 8195,
      "comedians": 8196,
      "borg": 8197,
      "nerd": 8198,
      "leaders": 8199,
      "holm": 8200,
      "valid": 8201,
      "polish": 8202,
      "conditions": 8203,
      "flair": 8204,
      "afghan": 8205,
      "refused": 8206,
      "straightforward": 8207,
      "jumped": 8208,
      "popularity": 8209,
      "visits": 8210,
      "masses": 8211,
      "educated": 8212,
      "naught": 8213,
      "nolan": 8214,
      "phew": 8215,
      "resources": 8216,
      "bread": 8217,
      "adow": 8218,
      "divine": 8219,
      "rah": 8220,
      "abused": 8221,
      "urity": 8222,
      "provoc": 8223,
      "ffin": 8224,
      "orton": 8225,
      "hoot": 8226,
      "turkish": 8227,
      "newcom": 8228,
      "disliked": 8229,
      "awfully": 8230,
      "triangle": 8231,
      "crum": 8232,
      "cratic": 8233,
      "skate": 8234,
      "petty": 8235,
      "bravo": 8236,
      "milk": 8237,
      "1981": 8238,
      "1997": 8239,
      "maxim": 8240,
      "claiming": 8241,
      "sulli": 8242,
      "visited": 8243,
      "1960s": 8244,
      "assuming": 8245,
      "property": 8246,
      "aids": 8247,
      "package": 8248,
      "phantom": 8249,
      "trademark": 8250,
      "severely": 8251,
      "astonishing": 8252,
      "valentine": 8253,
      "butes": 8254,
      "reha": 8255,
      "chant": 8256,
      "mobile": 8257,
      "rides": 8258,
      "undeni": 8259,
      "ambi": 8260,
      "ulty": 8261,
      "expo": 8262,
      "irene": 8263,
      "construct": 8264,
      "socc": 8265,
      "saga": 8266,
      "accompany": 8267,
      "agenda": 8268,
      "mins": 8269,
      "toys": 8270,
      "horn": 8271,
      "attri": 8272,
      "centers": 8273,
      "memor": 8274,
      "completed": 8275,
      "theart": 8276,
      "pete": 8277,
      "luded": 8278,
      "clun": 8279,
      "butter": 8280,
      "belushi": 8281,
      "positions": 8282,
      "destiny": 8283,
      "located": 8284,
      "samura": 8285,
      "referred": 8286,
      "controlled": 8287,
      "idio": 8288,
      "satisfy": 8289,
      "fascinated": 8290,
      "chicks": 8291,
      "witnesses": 8292,
      "objective": 8293,
      "suffice": 8294,
      "barrymore": 8295,
      "complaints": 8296,
      "companies": 8297,
      "healthy": 8298,
      "keeper": 8299,
      "cigare": 8300,
      "wretched": 8301,
      "travesty": 8302,
      "sullivan": 8303,
      "soccer": 8304,
      "cary": 8305,
      "dates": 8306,
      "iving": 8307,
      "kie": 8308,
      "kicking": 8309,
      "pages": 8310,
      "ucin": 8311,
      "vas": 8312,
      "wander": 8313,
      "zer": 8314,
      "edgy": 8315,
      "leather": 8316,
      "unpredictable": 8317,
      "mans": 8318,
      "proving": 8319,
      "getic": 8320,
      "greatness": 8321,
      "hokey": 8322,
      "venice": 8323,
      "washed": 8324,
      "musician": 8325,
      "interestingly": 8326,
      "preser": 8327,
      "aneous": 8328,
      "wardrobe": 8329,
      "hearted": 8330,
      "spirited": 8331,
      "tracking": 8332,
      "balanced": 8333,
      "doubts": 8334,
      "catchy": 8335,
      "beliefs": 8336,
      "prepare": 8337,
      "monkeys": 8338,
      "improvement": 8339,
      "tastes": 8340,
      "route": 8341,
      "molly": 8342,
      "orphan": 8343,
      "pom": 8344,
      "swi": 8345,
      "online": 8346,
      "eland": 8347,
      "prote": 8348,
      "gum": 8349,
      "interpret": 8350,
      "mish": 8351,
      "disgrace": 8352,
      "huston": 8353,
      "lasting": 8354,
      "walsh": 8355,
      "stuart": 8356,
      "skull": 8357,
      "recommendation": 8358,
      "godzilla": 8359,
      "releases": 8360,
      "constit": 8361,
      "crypt": 8362,
      "demonic": 8363,
      "psychic": 8364,
      "resemble": 8365,
      "conflicts": 8366,
      "erika": 8367,
      "ghetti": 8368,
      "plight": 8369,
      "uals": 8370,
      "vak": 8371,
      "wen": 8372,
      "edith": 8373,
      "liest": 8374,
      "unra": 8375,
      "unaware": 8376,
      "eller": 8377,
      "trum": 8378,
      "newly": 8379,
      "versity": 8380,
      "hello": 8381,
      "merits": 8382,
      "corpses": 8383,
      "nail": 8384,
      "moron": 8385,
      "morse": 8386,
      "harmon": 8387,
      "exceptions": 8388,
      "messed": 8389,
      "cancer": 8390,
      "females": 8391,
      "positively": 8392,
      "raymond": 8393,
      "sarandon": 8394,
      "repeating": 8395,
      "complexity": 8396,
      "receives": 8397,
      "randomly": 8398,
      "neighbors": 8399,
      "distress": 8400,
      "brooklyn": 8401,
      "bunny": 8402,
      "phillips": 8403,
      "golf": 8404,
      "dawson": 8405,
      "adolescent": 8406,
      "widescreen": 8407,
      "nonsensical": 8408,
      "90s": 8409,
      "flee": 8410,
      "wn": 8411,
      "zi": 8412,
      "insur": 8413,
      "encies": 8414,
      "remove": 8415,
      "alli": 8416,
      "stale": 8417,
      "orange": 8418,
      "sept": 8419,
      "vital": 8420,
      "unseen": 8421,
      "olph": 8422,
      "opic": 8423,
      "opers": 8424,
      "grind": 8425,
      "descent": 8426,
      "tox": 8427,
      "prize": 8428,
      "tripe": 8429,
      "chooses": 8430,
      "warrant": 8431,
      "blings": 8432,
      "probable": 8433,
      "restored": 8434,
      "simplicity": 8435,
      "greedy": 8436,
      "babies": 8437,
      "byr": 8438,
      "wyn": 8439,
      "challenged": 8440,
      "landscapes": 8441,
      "adaptations": 8442,
      "tasteless": 8443,
      "confrontation": 8444,
      "shoulder": 8445,
      "ambiguous": 8446,
      "miracle": 8447,
      "passengers": 8448,
      "choreographed": 8449,
      "spaghetti": 8450,
      "brosnan": 8451,
      "recycled": 8452,
      "natalie": 8453,
      "primitive": 8454,
      "lil": 8455,
      "lens": 8456,
      "lunch": 8457,
      "pale": 8458,
      "uh": 8459,
      "enig": 8460,
      "unlea": 8461,
      "imitation": 8462,
      "beware": 8463,
      "fei": 8464,
      "convi": 8465,
      "nephew": 8466,
      "whim": 8467,
      "sau": 8468,
      "miniser": 8469,
      "disappears": 8470,
      "excl": 8471,
      "polished": 8472,
      "dvds": 8473,
      "simpsons": 8474,
      "feld": 8475,
      "christians": 8476,
      "lively": 8477,
      "transition": 8478,
      "transformed": 8479,
      "willie": 8480,
      "businessman": 8481,
      "snatch": 8482,
      "industri": 8483,
      "hallucin": 8484,
      "imaginable": 8485,
      "objects": 8486,
      "dalton": 8487,
      "betrayal": 8488,
      "harrison": 8489,
      "fantasies": 8490,
      "entitled": 8491,
      "miniseries": 8492,
      "hawk": 8493,
      "patch": 8494,
      "secure": 8495,
      "caust": 8496,
      "very": 8497,
      "saint": 8498,
      "directions": 8499,
      "rusty": 8500,
      "cracking": 8501,
      "myr": 8502,
      "cube": 8503,
      "voight": 8504,
      "voiced": 8505,
      "minded": 8506,
      "barrel": 8507,
      "sounding": 8508,
      "gger": 8509,
      "couch": 8510,
      "household": 8511,
      "atures": 8512,
      "drove": 8513,
      "juliet": 8514,
      "signed": 8515,
      "knocked": 8516,
      "virtual": 8517,
      "servant": 8518,
      "advanced": 8519,
      "cruelty": 8520,
      "formative": 8521,
      "audition": 8522,
      "excessive": 8523,
      "paradise": 8524,
      "ib": 8525,
      "vall": 8526,
      "inability": 8527,
      "remarks": 8528,
      "roots": 8529,
      "poem": 8530,
      "manuel": 8531,
      "exposition": 8532,
      "conan": 8533,
      "consum": 8534,
      "mentions": 8535,
      "inty": 8536,
      "bergh": 8537,
      "stranded": 8538,
      "interactions": 8539,
      "weir": 8540,
      "crip": 8541,
      "danes": 8542,
      "tops": 8543,
      "portrayals": 8544,
      "victory": 8545,
      "secretly": 8546,
      "experiments": 8547,
      "posted": 8548,
      "dirt": 8549,
      "designs": 8550,
      "attered": 8551,
      "gentlemen": 8552,
      "warriors": 8553,
      "distribution": 8554,
      "lauren": 8555,
      "lifeless": 8556,
      "holocaust": 8557,
      "ponyo": 8558,
      "beverly": 8559,
      "nemesis": 8560,
      "samurai": 8561,
      "50s": 8562,
      "clin": 8563,
      "fid": 8564,
      "fies": 8565,
      "jas": 8566,
      "jacqu": 8567,
      "kle": 8568,
      "ssey": 8569,
      "inaccurate": 8570,
      "anchor": 8571,
      "lex": 8572,
      "exhibit": 8573,
      "abdu": 8574,
      "ables": 8575,
      "beau": 8576,
      "confir": 8577,
      "geek": 8578,
      "tacky": 8579,
      "internal": 8580,
      "desires": 8581,
      "resident": 8582,
      "monk": 8583,
      "monty": 8584,
      "overlook": 8585,
      "syd": 8586,
      "sublime": 8587,
      "corman": 8588,
      "nails": 8589,
      "bargain": 8590,
      "gregory": 8591,
      "deserving": 8592,
      "murdering": 8593,
      "kyle": 8594,
      "onymous": 8595,
      "dressing": 8596,
      "describing": 8597,
      "literary": 8598,
      "fascination": 8599,
      "occasions": 8600,
      "fruit": 8601,
      "unexpectedly": 8602,
      "fifty": 8603,
      "devices": 8604,
      "bogart": 8605,
      "injured": 8606,
      "lackluster": 8607,
      "bis": 8608,
      "gris": 8609,
      "mick": 8610,
      "nag": 8611,
      "rance": 8612,
      "wings": 8613,
      "informed": 8614,
      "retired": 8615,
      "stim": 8616,
      "degrad": 8617,
      "roo": 8618,
      "filler": 8619,
      "amit": 8620,
      "manu": 8621,
      "abusive": 8622,
      "prospect": 8623,
      "plat": 8624,
      "ciously": 8625,
      "wire": 8626,
      "anski": 8627,
      "angst": 8628,
      "rug": 8629,
      "rukh": 8630,
      "lush": 8631,
      "vocal": 8632,
      "denzel": 8633,
      "simpson": 8634,
      "brace": 8635,
      "presenting": 8636,
      "strongest": 8637,
      "hyde": 8638,
      "babe": 8639,
      "volta": 8640,
      "respective": 8641,
      "1987": 8642,
      "eugene": 8643,
      "survivor": 8644,
      "flashes": 8645,
      "ranch": 8646,
      "banal": 8647,
      "immediate": 8648,
      "fashioned": 8649,
      "quietly": 8650,
      "hartley": 8651,
      "debate": 8652,
      "intric": 8653,
      "taxi": 8654,
      "hughes": 8655,
      "snipes": 8656,
      "fiancé": 8657,
      "profanity": 8658,
      "unravel": 8659,
      "had": 8660,
      "hend": 8661,
      "stur": 8662,
      "eday": 8663,
      "leap": 8664,
      "macar": 8665,
      "filth": 8666,
      "dimin": 8667,
      "comings": 8668,
      "exped": 8669,
      "pling": 8670,
      "playboy": 8671,
      "realm": 8672,
      "strings": 8673,
      "orson": 8674,
      "miche": 8675,
      "placing": 8676,
      "startling": 8677,
      "misleading": 8678,
      "cracy": 8679,
      "morals": 8680,
      "blob": 8681,
      "ridge": 8682,
      "generate": 8683,
      "christie": 8684,
      "bib": 8685,
      "regards": 8686,
      "rises": 8687,
      "sometime": 8688,
      "photos": 8689,
      "containing": 8690,
      "teachers": 8691,
      "ifies": 8692,
      "concepts": 8693,
      "records": 8694,
      "olivier": 8695,
      "terminator": 8696,
      "tempor": 8697,
      "frightened": 8698,
      "patriot": 8699,
      "gulli": 8700,
      "precisely": 8701,
      "apocalypse": 8702,
      "bakshi": 8703,
      "dillon": 8704,
      "technicol": 8705,
      "dwar": 8706,
      "rour": 8707,
      "sill": 8708,
      "shore": 8709,
      "undead": 8710,
      "lap": 8711,
      "vein": 8712,
      "uters": 8713,
      "neath": 8714,
      "okie": 8715,
      "forty": 8716,
      "quant": 8717,
      "quint": 8718,
      "noises": 8719,
      "astaire": 8720,
      "attor": 8721,
      "19th": 8722,
      "casts": 8723,
      "crashes": 8724,
      "cuba": 8725,
      "tomato": 8726,
      "region": 8727,
      "shack": 8728,
      "ronald": 8729,
      "subjected": 8730,
      "culmin": 8731,
      "minority": 8732,
      "investigating": 8733,
      "galax": 8734,
      "lengthy": 8735,
      "chuckle": 8736,
      "fifth": 8737,
      "muddled": 8738,
      "harmless": 8739,
      "incorrect": 8740,
      "obligatory": 8741,
      "paranoia": 8742,
      "alternate": 8743,
      "coincidence": 8744,
      "august": 8745,
      "shoddy": 8746,
      "pronoun": 8747,
      "inevitably": 8748,
      "aute": 8749,
      "gilli": 8750,
      "ichi": 8751,
      "sby": 8752,
      "sandy": 8753,
      "stap": 8754,
      "lily": 8755,
      "lity": 8756,
      "demented": 8757,
      "debbie": 8758,
      "rosa": 8759,
      "amused": 8760,
      "abled": 8761,
      "ollie": 8762,
      "oppress": 8763,
      "urs": 8764,
      "tramp": 8765,
      "insanity": 8766,
      "atten": 8767,
      "carlos": 8768,
      "grainy": 8769,
      "herzo": 8770,
      "screens": 8771,
      "underneath": 8772,
      "differently": 8773,
      "understands": 8774,
      "romp": 8775,
      "schools": 8776,
      "dictator": 8777,
      "arrang": 8778,
      "dropping": 8779,
      "fluff": 8780,
      "layers": 8781,
      "snowman": 8782,
      "hayworth": 8783,
      "macbeth": 8784,
      "drinks": 8785,
      "demonstrates": 8786,
      "loyalty": 8787,
      "muppets": 8788,
      "eternal": 8789,
      "demise": 8790,
      "confidence": 8791,
      "exposure": 8792,
      "attorney": 8793,
      "3d": 8794,
      "gur": 8795,
      "mig": 8796,
      "pable": 8797,
      "orleans": 8798,
      "vish": 8799,
      "loop": 8800,
      "loath": 8801,
      "shat": 8802,
      "mam": 8803,
      "rochester": 8804,
      "kees": 8805,
      "scru": 8806,
      "posters": 8807,
      "mand": 8808,
      "behold": 8809,
      "andering": 8810,
      "perman": 8811,
      "alled": 8812,
      "ortion": 8813,
      "realised": 8814,
      "travolta": 8815,
      "hob": 8816,
      "pax": 8817,
      "designer": 8818,
      "ruby": 8819,
      "mayhem": 8820,
      "dismiss": 8821,
      "centered": 8822,
      "interests": 8823,
      "overlong": 8824,
      "obi": 8825,
      "leagues": 8826,
      "nik": 8827,
      "leted": 8828,
      "specially": 8829,
      "rene": 8830,
      "puer": 8831,
      "rolls": 8832,
      "hungry": 8833,
      "gypsy": 8834,
      "studying": 8835,
      "1978": 8836,
      "unlikeable": 8837,
      "1969": 8838,
      "witches": 8839,
      "dickens": 8840,
      "widely": 8841,
      "brady": 8842,
      "invented": 8843,
      "mitchum": 8844,
      "ignorance": 8845,
      "wagner": 8846,
      "egyptian": 8847,
      "robbins": 8848,
      "destroying": 8849,
      "adopted": 8850,
      "rourke": 8851,
      "hindi": 8852,
      "ik": 8853,
      "rats": 8854,
      "uwe": 8855,
      "enhan": 8856,
      "arc": 8857,
      "brat": 8858,
      "shear": 8859,
      "shouting": 8860,
      "sums": 8861,
      "este": 8862,
      "teams": 8863,
      "spli": 8864,
      "bacon": 8865,
      "grun": 8866,
      "gible": 8867,
      "minus": 8868,
      "rupert": 8869,
      "insists": 8870,
      "grabs": 8871,
      "blin": 8872,
      "velvet": 8873,
      "wakes": 8874,
      "owners": 8875,
      "carey": 8876,
      "jacket": 8877,
      "bike": 8878,
      "shared": 8879,
      "dont": 8880,
      "grief": 8881,
      "1973": 8882,
      "homes": 8883,
      "1940s": 8884,
      "opportunities": 8885,
      "gloria": 8886,
      "montana": 8887,
      "explores": 8888,
      "narrow": 8889,
      "ensues": 8890,
      "bounty": 8891,
      "stumbled": 8892,
      "weaknesses": 8893,
      "aristo": 8894,
      "passage": 8895,
      "herzog": 8896,
      "gap": 8897,
      "gender": 8898,
      "hing": 8899,
      "nap": 8900,
      "yep": 8901,
      "inconsistent": 8902,
      "enberg": 8903,
      "map": 8904,
      "goers": 8905,
      "pocket": 8906,
      "isy": 8907,
      "verho": 8908,
      "preposter": 8909,
      "frances": 8910,
      "suburb": 8911,
      "kidman": 8912,
      "flip": 8913,
      "moronic": 8914,
      "eleven": 8915,
      "identical": 8916,
      "christine": 8917,
      "someday": 8918,
      "butcher": 8919,
      "locals": 8920,
      "damon": 8921,
      "1984": 8922,
      "1988": 8923,
      "stunned": 8924,
      "subtly": 8925,
      "suspecting": 8926,
      "authorities": 8927,
      "neighbour": 8928,
      "hippie": 8929,
      "substant": 8930,
      "losers": 8931,
      "mildred": 8932,
      "choppy": 8933,
      "hackney": 8934,
      "firmly": 8935,
      "hopelessly": 8936,
      "smugg": 8937,
      "prominent": 8938,
      "dysfunctional": 8939,
      "hk": 8940,
      "ivan": 8941,
      "pill": 8942,
      "sending": 8943,
      "slee": 8944,
      "errol": 8945,
      "encourage": 8946,
      "ora": 8947,
      "sebast": 8948,
      "unlikable": 8949,
      "addiction": 8950,
      "dilem": 8951,
      "raising": 8952,
      "odder": 8953,
      "fulfill": 8954,
      "bothers": 8955,
      "meal": 8956,
      "pher": 8957,
      "insip": 8958,
      "carly": 8959,
      "monu": 8960,
      "hust": 8961,
      "mercy": 8962,
      "odyssey": 8963,
      "additional": 8964,
      "shortcomings": 8965,
      "flag": 8966,
      "annon": 8967,
      "supported": 8968,
      "refuse": 8969,
      "shares": 8970,
      "1968": 8971,
      "threatens": 8972,
      "aaaa": 8973,
      "challenges": 8974,
      "puzzle": 8975,
      "wholly": 8976,
      "heimer": 8977,
      "sydney": 8978,
      "insipid": 8979,
      "23": 8980,
      "aer": 8981,
      "eh": 8982,
      "sale": 8983,
      "tant": 8984,
      "eson": 8985,
      "rein": 8986,
      "request": 8987,
      "shred": 8988,
      "shaky": 8989,
      "activity": 8990,
      "diaz": 8991,
      "improvi": 8992,
      "racing": 8993,
      "ulated": 8994,
      "assure": 8995,
      "abh": 8996,
      "otto": 8997,
      "caval": 8998,
      "illumin": 8999,
      "boots": 9000,
      "partially": 9001,
      "acclaimed": 9002,
      "bettie": 9003,
      "simmons": 9004,
      "underwater": 9005,
      "outfits": 9006,
      "lette": 9007,
      "barker": 9008,
      "harrow": 9009,
      "venture": 9010,
      "samanth": 9011,
      "connections": 9012,
      "psychology": 9013,
      "statue": 9014,
      "bonnie": 9015,
      "gems": 9016,
      "insightful": 9017,
      "evolution": 9018,
      "heights": 9019,
      "kissing": 9020,
      "discussing": 9021,
      "hulk": 9022,
      "kumar": 9023,
      "immortal": 9024,
      "miraculous": 9025,
      "provocative": 9026,
      "biblical": 9027,
      "silliness": 9028,
      "hackneyed": 9029,
      "lomb": 9030,
      "oly": 9031,
      "wu": 9032,
      "oned": 9033,
      "remakes": 9034,
      "stain": 9035,
      "chet": 9036,
      "seam": 9037,
      "moe": 9038,
      "entered": 9039,
      "delicate": 9040,
      "shap": 9041,
      "unders": 9042,
      "cemet": 9043,
      "pole": 9044,
      "apple": 9045,
      "earl": 9046,
      "agement": 9047,
      "ishes": 9048,
      "farmer": 9049,
      "computers": 9050,
      "skits": 9051,
      "curly": 9052,
      "cerem": 9053,
      "heartwarming": 9054,
      "lists": 9055,
      "deserted": 9056,
      "masterpieces": 9057,
      "vain": 9058,
      "hopkins": 9059,
      "shaking": 9060,
      "louise": 9061,
      "beatty": 9062,
      "beside": 9063,
      "difficulties": 9064,
      "assumed": 9065,
      "imaginary": 9066,
      "natives": 9067,
      "emerges": 9068,
      "rejected": 9069,
      "convenient": 9070,
      "predecessor": 9071,
      "fundamental": 9072,
      "claustrophobic": 9073,
      "macarthur": 9074,
      "verhoeven": 9075,
      "samantha": 9076,
      "ckey": 9077,
      "dale": 9078,
      "kow": 9079,
      "vary": 9080,
      "eras": 9081,
      "mothers": 9082,
      "dexter": 9083,
      "deleted": 9084,
      "elvi": 9085,
      "adle": 9086,
      "ember": 9087,
      "sson": 9088,
      "margin": 9089,
      "surfing": 9090,
      "gency": 9091,
      "muslim": 9092,
      "counting": 9093,
      "morbid": 9094,
      "steady": 9095,
      "heartfelt": 9096,
      "casey": 9097,
      "convention": 9098,
      "suspend": 9099,
      "depending": 9100,
      "hilarity": 9101,
      "attacking": 9102,
      "1993": 9103,
      "1998": 9104,
      "penny": 9105,
      "karl": 9106,
      "assured": 9107,
      "camcor": 9108,
      "altered": 9109,
      "dunne": 9110,
      "significance": 9111,
      "dallas": 9112,
      "assassination": 9113,
      "communicate": 9114,
      "skeleton": 9115,
      "disgusted": 9116,
      "supply": 9117,
      "israel": 9118,
      "reluctant": 9119,
      "items": 9120,
      "devastating": 9121,
      "empathy": 9122,
      "grateful": 9123,
      "technicolor": 9124,
      "fers": 9125,
      "glar": 9126,
      "glit": 9127,
      "hound": 9128,
      "ios": 9129,
      "ramp": 9130,
      "yan": 9131,
      "zar": 9132,
      "ende": 9133,
      "reeves": 9134,
      "edi": 9135,
      "icable": 9136,
      "entering": 9137,
      "deer": 9138,
      "goon": 9139,
      "idol": 9140,
      "carell": 9141,
      "plants": 9142,
      "boards": 9143,
      "spen": 9144,
      "preming": 9145,
      "athlet": 9146,
      "hogan": 9147,
      "paramount": 9148,
      "gery": 9149,
      "coupled": 9150,
      "danish": 9151,
      "christina": 9152,
      "fuller": 9153,
      "dreck": 9154,
      "bias": 9155,
      "dealer": 9156,
      "legacy": 9157,
      "schlock": 9158,
      "mete": 9159,
      "volun": 9160,
      "respectively": 9161,
      "palace": 9162,
      "dolph": 9163,
      "ethan": 9164,
      "layer": 9165,
      "olivia": 9166,
      "strengths": 9167,
      "separated": 9168,
      "stretched": 9169,
      "ambition": 9170,
      "translated": 9171,
      "quarter": 9172,
      "uniformly": 9173,
      "astounding": 9174,
      "kramer": 9175,
      "apologi": 9176,
      "preposterous": 9177,
      "dess": 9178,
      "frog": 9179,
      "htt": 9180,
      "jill": 9181,
      "jaded": 9182,
      "og": 9183,
      "ober": 9184,
      "tum": 9185,
      "wwe": 9186,
      "atics": 9187,
      "modo": 9188,
      "macho": 9189,
      "odoo": 9190,
      "emil": 9191,
      "woven": 9192,
      "ieu": 9193,
      "dup": 9194,
      "travis": 9195,
      "auf": 9196,
      "insom": 9197,
      "screwed": 9198,
      "crazed": 9199,
      "haines": 9200,
      "handling": 9201,
      "alec": 9202,
      "mencia": 9203,
      "dana": 9204,
      "styli": 9205,
      "pushes": 9206,
      "logan": 9207,
      "heroin": 9208,
      "considerably": 9209,
      "suspension": 9210,
      "sians": 9211,
      "sooner": 9212,
      "justified": 9213,
      "waitress": 9214,
      "billed": 9215,
      "slice": 9216,
      "inspire": 9217,
      "paintings": 9218,
      "tunnel": 9219,
      "stores": 9220,
      "preferred": 9221,
      "glance": 9222,
      "freaks": 9223,
      "admirable": 9224,
      "hilton": 9225,
      "preachy": 9226,
      "exploring": 9227,
      "gadget": 9228,
      "fierce": 9229,
      "columbia": 9230,
      "http": 9231,
      "4th": 9232,
      "mou": 9233,
      "winters": 9234,
      "reci": 9235,
      "stically": 9236,
      "stages": 9237,
      "mast": 9238,
      "divid": 9239,
      "immature": 9240,
      "pecu": 9241,
      "irons": 9242,
      "istent": 9243,
      "earnest": 9244,
      "previews": 9245,
      "prints": 9246,
      "aste": 9247,
      "phones": 9248,
      "interrog": 9249,
      "izer": 9250,
      "fift": 9251,
      "fishing": 9252,
      "singers": 9253,
      "rightly": 9254,
      "cushing": 9255,
      "voodoo": 9256,
      "mormon": 9257,
      "decline": 9258,
      "declar": 9259,
      "coppola": 9260,
      "northern": 9261,
      "register": 9262,
      "depends": 9263,
      "sticking": 9264,
[...]
